<unk>	0
<s>	0
</s>	0
<0x00>	0
<0x01>	0
<0x02>	0
<0x03>	0
<0x04>	0
<0x05>	0
<0x06>	0
<0x07>	0
<0x08>	0
<0x09>	0
<0x0A>	0
<0x0B>	0
<0x0C>	0
<0x0D>	0
<0x0E>	0
<0x0F>	0
<0x10>	0
<0x11>	0
<0x12>	0
<0x13>	0
<0x14>	0
<0x15>	0
<0x16>	0
<0x17>	0
<0x18>	0
<0x19>	0
<0x1A>	0
<0x1B>	0
<0x1C>	0
<0x1D>	0
<0x1E>	0
<0x1F>	0
<0x20>	0
<0x21>	0
<0x22>	0
<0x23>	0
<0x24>	0
<0x25>	0
<0x26>	0
<0x27>	0
<0x28>	0
<0x29>	0
<0x2A>	0
<0x2B>	0
<0x2C>	0
<0x2D>	0
<0x2E>	0
<0x2F>	0
<0x30>	0
<0x31>	0
<0x32>	0
<0x33>	0
<0x34>	0
<0x35>	0
<0x36>	0
<0x37>	0
<0x38>	0
<0x39>	0
<0x3A>	0
<0x3B>	0
<0x3C>	0
<0x3D>	0
<0x3E>	0
<0x3F>	0
<0x40>	0
<0x41>	0
<0x42>	0
<0x43>	0
<0x44>	0
<0x45>	0
<0x46>	0
<0x47>	0
<0x48>	0
<0x49>	0
<0x4A>	0
<0x4B>	0
<0x4C>	0
<0x4D>	0
<0x4E>	0
<0x4F>	0
<0x50>	0
<0x51>	0
<0x52>	0
<0x53>	0
<0x54>	0
<0x55>	0
<0x56>	0
<0x57>	0
<0x58>	0
<0x59>	0
<0x5A>	0
<0x5B>	0
<0x5C>	0
<0x5D>	0
<0x5E>	0
<0x5F>	0
<0x60>	0
<0x61>	0
<0x62>	0
<0x63>	0
<0x64>	0
<0x65>	0
<0x66>	0
<0x67>	0
<0x68>	0
<0x69>	0
<0x6A>	0
<0x6B>	0
<0x6C>	0
<0x6D>	0
<0x6E>	0
<0x6F>	0
<0x70>	0
<0x71>	0
<0x72>	0
<0x73>	0
<0x74>	0
<0x75>	0
<0x76>	0
<0x77>	0
<0x78>	0
<0x79>	0
<0x7A>	0
<0x7B>	0
<0x7C>	0
<0x7D>	0
<0x7E>	0
<0x7F>	0
<0x80>	0
<0x81>	0
<0x82>	0
<0x83>	0
<0x84>	0
<0x85>	0
<0x86>	0
<0x87>	0
<0x88>	0
<0x89>	0
<0x8A>	0
<0x8B>	0
<0x8C>	0
<0x8D>	0
<0x8E>	0
<0x8F>	0
<0x90>	0
<0x91>	0
<0x92>	0
<0x93>	0
<0x94>	0
<0x95>	0
<0x96>	0
<0x97>	0
<0x98>	0
<0x99>	0
<0x9A>	0
<0x9B>	0
<0x9C>	0
<0x9D>	0
<0x9E>	0
<0x9F>	0
<0xA0>	0
<0xA1>	0
<0xA2>	0
<0xA3>	0
<0xA4>	0
<0xA5>	0
<0xA6>	0
<0xA7>	0
<0xA8>	0
<0xA9>	0
<0xAA>	0
<0xAB>	0
<0xAC>	0
<0xAD>	0
<0xAE>	0
<0xAF>	0
<0xB0>	0
<0xB1>	0
<0xB2>	0
<0xB3>	0
<0xB4>	0
<0xB5>	0
<0xB6>	0
<0xB7>	0
<0xB8>	0
<0xB9>	0
<0xBA>	0
<0xBB>	0
<0xBC>	0
<0xBD>	0
<0xBE>	0
<0xBF>	0
<0xC0>	0
<0xC1>	0
<0xC2>	0
<0xC3>	0
<0xC4>	0
<0xC5>	0
<0xC6>	0
<0xC7>	0
<0xC8>	0
<0xC9>	0
<0xCA>	0
<0xCB>	0
<0xCC>	0
<0xCD>	0
<0xCE>	0
<0xCF>	0
<0xD0>	0
<0xD1>	0
<0xD2>	0
<0xD3>	0
<0xD4>	0
<0xD5>	0
<0xD6>	0
<0xD7>	0
<0xD8>	0
<0xD9>	0
<0xDA>	0
<0xDB>	0
<0xDC>	0
<0xDD>	0
<0xDE>	0
<0xDF>	0
<0xE0>	0
<0xE1>	0
<0xE2>	0
<0xE3>	0
<0xE4>	0
<0xE5>	0
<0xE6>	0
<0xE7>	0
<0xE8>	0
<0xE9>	0
<0xEA>	0
<0xEB>	0
<0xEC>	0
<0xED>	0
<0xEE>	0
<0xEF>	0
<0xF0>	0
<0xF1>	0
<0xF2>	0
<0xF3>	0
<0xF4>	0
<0xF5>	0
<0xF6>	0
<0xF7>	0
<0xF8>	0
<0xF9>	0
<0xFA>	0
<0xFB>	0
<0xFC>	0
<0xFD>	0
<0xFE>	0
<0xFF>	0
th	-0
in	-1
re	-2
an	-3
the	-4
on	-5
ou	-6
at	-7
is	-8
ed	-9
er	-10
to	-11
es	-12
al	-13
en	-14
it	-15
or	-16
▁a	-17
ing	-18
""	-19
le	-20
as	-21
ti	-22
▁the	-23
ar	-24
and	-25
▁s	-26
you	-27
▁w	-28
of	-29
▁b	-30
▁c	-31
om	-32
us	-33
no	-34
ic	-35
▁p	-36
ly	-37
▁m	-38
ve	-39
▁th	-40
▁to	-41
▁h	-42
▁f	-43
▁I	-44
ag	-45
▁d	-46
el	-47
ac	-48
ec	-49
ion	-50
ad	-51
id	-52
▁you	-53
st	-54
▁in	-55
▁of	-56
ro	-57
ent	-58
il	-59
am	-60
▁and	-61
ere	-62
lo	-63
ik	-64
tic	-65
▁re	-66
ver	-67
not	-68
im	-69
ay	-70
ld	-71
▁is	-72
ab	-73
tion	-74
ig	-75
ut	-76
se	-77
ch	-78
et	-79
if	-80
wh	-81
un	-82
ith	-83
for	-84
▁""	-85
ation	-86
that	-87
▁that	-88
em	-89
edi	-90
ip	-91
▁T	-92
ave	-93
tr	-94
ol	-95
ce	-96
▁it	-97
ould	-98
▁be	-99
age	-100
▁on	-101
ap	-102
op	-103
ow	-104
ther	-105
are	-106
▁wh	-107
out	-108
be	-109
▁l	-110
▁g	-111
ew	-112
ter	-113
ir	-114
ex	-115
▁A	-116
▁W	-117
▁for	-118
ome	-119
ts	-120
ate	-121
▁t	-122
ur	-123
ul	-124
all	-125
ers	-126
ticle	-127
ak	-128
any	-129
our	-130
ikip	-131
▁not	-132
ain	-133
up	-134
this	-135
ikipedi	-136
ore	-137
ck	-138
▁Th	-139
ted	-140
▁n	-141
ill	-142
rom	-143
qu	-144
▁S	-145
▁as	-146
ont	-147
▁ar	-148
▁"""	-149
alk	-150
od	-151
ess	-152
ot	-153
me	-154
ht	-155
ally	-156
▁"	-157
tor	-158
sh	-159
▁this	-160
edit	-161
ink	-162
▁(	-163
now	-164
res	-165
""""	-166
use	-167
one	-168
pl	-169
os	-170
ikipedia	-171
um	-172
leas	-173
ib	-174
ant	-175
oun	-176
▁are	-177
pro	-178
ust	-179
▁C	-180
vi	-181
other	-182
▁have	-183
pe	-184
est	-185
de	-186
▁""""	-187
so	-188
▁with	-189
ist	-190
▁P	-191
ok	-192
▁e	-193
su	-194
your	-195
▁M	-196
ity	-197
▁your	-198
▁an	-199
▁B	-200
▁do	-201
con	-202
▁or	-203
ind	-204
com	-205
▁H	-206
ank	-207
ich	-208
ish	-209
with	-210
ard	-211
ee	-212
ell	-213
ack	-214
ike	-215
20	-216
▁was	-217
ight	-218
ven	-219
ive	-220
les	-221
▁article	-222
▁con	-223
nt	-224
mo	-225
there	-226
ment	-227
ame	-228
ang	-229
thing	-230
ies	-231
was	-232
ous	-233
▁sh	-234
▁at	-235
end	-236
..	-237
▁me	-238
ated	-239
▁ab	-240
just	-241
oug	-242
ong	-243
my	-244
rit	-245
rec	-246
article	-247
▁de	-248
have	-249
▁st	-250
▁pro	-251
sp	-252
der	-253
by	-254
ure	-255
able	-256
ofthe	-257
cl	-258
▁D	-259
tof	-260
ub	-261
know	-262
very	-263
po	-264
ans	-265
ces	-266
av	-267
▁ad	-268
▁but	-269
▁F	-270
▁r	-271
▁un	-272
▁page	-273
▁N	-274
▁ex	-275
▁al	-276
ake	-277
isc	-278
por	-279
▁Y	-280
▁my	-281
ting	-282
form	-283
▁R	-284
iv	-285
af	-286
▁The	-287
do	-288
lease	-289
▁com	-290
he	-291
but	-292
its	-293
▁can	-294
from	-295
sion	-296
ide	-297
inthe	-298
▁from	-299
go	-300
lock	-301
▁by	-302
ial	-303
▁some	-304
tions	-305
ll	-306
iz	-307
ause	-308
ud	-309
▁edit	-310
▁us	-311
act	-312
ages	-313
▁no	-314
bo	-315
fere	-316
."	-317
▁so	-318
ough	-319
ite	-320
ord	-321
aw	-322
ri	-323
▁any	-324
page	-325
per	-326
int	-327
▁ac	-328
ism	-329
▁G	-330
ass	-331
▁1	-332
▁Wikipedia	-333
ticles	-334
ine	-335
ound	-336
▁about	-337
erson	-338
ecause	-339
ary	-340
ect	-341
talk	-342
▁ch	-343
ne	-344
!!	-345
gr	-346
ople	-347
what	-348
ork	-349
ie	-350
about	-351
te	-352
uch	-353
ree	-354
thes	-355
uck	-356
top	-357
red	-358
▁if	-359
▁he	-360
▁E	-361
▁go	-362
elf	-363
▁lo	-364
▁O	-365
them	-366
ob	-367
▁v	-368
ge	-369
art	-370
add	-371
we	-372
ue	-373
ian	-374
▁L	-375
ast	-376
uc	-377
▁has	-378
200	-379
▁tr	-380
they	-381
ign	-382
ens	-383
ence	-384
time	-385
ved	-386
ever	-387
▁im	-388
▁will	-389
▁would	-390
▁we	-391
ry	-392
wikipedia	-393
ber	-394
▁there	-395
ah	-396
iscus	-397
▁what	-398
ple	-399
elp	-400
min	-401
ear	-402
trib	-403
way	-404
would	-405
fore	-406
will	-407
anks	-408
▁all	-409
▁J	-410
ques	-411
▁his	-412
▁like	-413
view	-414
over	-415
▁other	-416
low	-417
then	-418
feren	-419
can	-420
▁le	-421
read	-422
own	-423
ace	-424
his	-425
which	-426
pos	-427
ost	-428
▁one	-429
▁-	-430
▁add	-431
ug	-432
ection	-433
has	-434
tothe	-435
ings	-436
ations	-437
▁dele	-438
ifyou	-439
▁U	-440
▁they	-441
ail	-442
ons	-443
ia	-444
▁cont	-445
ition	-446
ical	-447
▁talk	-448
reat	-449
igh	-450
formation	-451
cont	-452
▁If	-453
▁who	-454
▁been	-455
▁know	-456
▁up	-457
like	-458
andal	-459
ick	-460
port	-461
▁just	-462
▁should	-463
ful	-464
ade	-465
ach	-466
some	-467
00	-468
here	-469
ources	-470
self	-471
log	-472
▁which	-473
cr	-474
▁You	-475
ser	-476
ile	-477
▁more	-478
ose	-479
tim	-480
par	-481
how	-482
app	-483
ond	-484
dele	-485
▁It	-486
▁am	-487
been	-488
▁ne	-489
▁ag	-490
pec	-491
▁en	-492
▁don	-493
irst	-494
▁think	-495
ates	-496
editor	-497
onthe	-498
pr	-499
tory	-500
edto	-501
olic	-502
ual	-503
ance	-504
fic	-505
itis	-506
block	-507
aid	-508
pt	-509
ase	-510
ress	-511
▁k	-512
ten	-513
more	-514
▁i	-515
oc	-516
19	-517
iscussion	-518
ove	-519
▁here	-520
▁out	-521
▁se	-522
ble	-523
ath	-524
ingto	-525
get	-526
ext	-527
articles	-528
ource	-529
▁pe	-530
ason	-531
ject	-532
ph	-533
lish	-534
lear	-535
rect	-536
ents	-537
▁pl	-538
▁see	-539
ty	-540
air	-541
ays	-542
▁ap	-543
▁did	-544
put	-545
ually	-546
ern	-547
ingthe	-548
str	-549
man	-550
sid	-551
acc	-552
ci	-553
li	-554
nd	-555
ince	-556
als	-557
tive	-558
arch	-559
stand	-560
lic	-561
only	-562
ise	-563
▁use	-564
▁y	-565
ied	-566
ater	-567
thef	-568
▁Wh	-569
sto	-570
inc	-571
wikipedi	-572
old	-573
ious	-574
▁does	-575
▁people	-576
cy	-577
▁because	-578
aph	-579
opy	-580
▁K	-581
...	-582
tern	-583
come	-584
aim	-585
why	-586
iam	-587
should	-588
were	-589
because	-590
▁them	-591
ific	-592
ff	-593
og	-594
att	-595
till	-596
where	-597
▁only	-598
tom	-599
▁2	-600
▁may	-601
ments	-602
when	-603
gu	-604
elie	-605
▁get	-606
▁how	-607
arn	-608
vid	-609
ply	-610
tp	-611
enti	-612
may	-613
see	-614
ire	-615
less	-616
lop	-617
▁also	-618
people	-619
work	-620
try	-621
right	-622
▁cl	-623
▁were	-624
▁need	-625
again	-626
ys	-627
fin	-628
ih	-629
ced	-630
aking	-631
led	-632
▁time	-633
ention	-634
ice	-635
ann	-636
ered	-637
ra	-638
▁Please	-639
▁bo	-640
▁articles	-641
▁This	-642
ves	-643
youare	-644
user	-645
▁then	-646
eep	-647
ator	-648
ility	-649
▁po	-650
blem	-651
▁dis	-652
▁remo	-653
▁j	-654
back	-655
iki	-656
sand	-657
pre	-658
thec	-659
who	-660
bu	-661
eck	-662
plain	-663
lec	-664
person	-665
▁when	-666
10	-667
tain	-668
ope	-669
▁In	-670
▁link	-671
▁block	-672
vers	-673
question	-674
▁acc	-675
pleas	-676
ult	-677
under	-678
gard	-679
▁their	-680
iss	-681
ational	-682
▁being	-683
clud	-684
ible	-685
row	-686
tribu	-687
org	-688
▁qu	-689
▁person	-690
ener	-691
erest	-692
does	-693
▁than	-694
ines	-695
▁work	-696
edia	-697
think	-698
ars	-699
▁op	-700
help	-701
itt	-702
comm	-703
wo	-704
io	-705
uth	-706
bs	-707
ark	-708
▁why	-709
▁under	-710
ote	-711
writ	-712
ists	-713
used	-714
az	-715
ange	-716
being	-717
▁say	-718
fer	-719
than	-720
ss	-721
ating	-722
ited	-723
▁again	-724
▁200	-725
).	-726
inal	-727
did	-728
▁look	-729
pres	-730
dis	-731
ech	-732
!!!!	-733
▁had	-734
▁read	-735
ands	-736
12	-737
isnot	-738
ense	-739
▁please	-740
ollow	-741
▁make	-742
ins	-743
ican	-744
eel	-745
new	-746
ask	-747
di	-748
br	-749
ably	-750
▁sub	-751
elcome	-752
information	-753
etter	-754
fuck	-755
akes	-756
ative	-757
▁now	-758
remo	-759
▁'	-760
vious	-761
▁help	-762
ste	-763
urre	-764
duc	-765
ww	-766
eng	-767
pages	-768
vol	-769
▁gu	-770
aj	-771
ash	-772
ort	-773
edon	-774
▁int	-775
▁even	-776
oh	-777
▁per	-778
ference	-779
▁new	-780
ict	-781
▁could	-782
ement	-783
fr	-784
link	-785
▁Ch	-786
orld	-787
tod	-788
fo	-789
▁information	-790
cre	-791
▁very	-792
jec	-793
though	-794
▁want	-795
elieve	-796
11	-797
well	-798
▁editor	-799
andalism	-800
▁good	-801
off	-802
ular	-803
ames	-804
ize	-805
cent	-806
also	-807
olicy	-808
▁its	-809
inion	-810
ems	-811
mer	-812
ount	-813
edy	-814
▁V	-815
artic	-816
cyc	-817
deletion	-818
rong	-819
bl	-820
ready	-821
▁way	-822
▁pr	-823
ix	-824
atter	-825
want	-826
bec	-827
▁sources	-828
sub	-829
ember	-830
thisis	-831
term	-832
ought	-833
▁pre	-834
look	-835
▁des	-836
forthe	-837
ily	-838
▁deletion	-839
ha	-840
▁well	-841
tos	-842
urrent	-843
ool	-844
admin	-845
ory	-846
atch	-847
▁writ	-848
ng	-849
orry	-850
box	-851
▁such	-852
ics	-853
cyclop	-854
▁over	-855
orrect	-856
▁name	-857
thatthe	-858
most	-859
istr	-860
ude	-861
ither	-862
thanks	-863
▁sup	-864
▁pages	-865
▁back	-866
ublic	-867
andthe	-868
ferences	-869
.1	-870
▁att	-871
ugg	-872
rel	-873
dont	-874
ihave	-875
//	-876
oup	-877
▁Re	-878
ically	-879
ased	-880
▁gr	-881
▁rever	-882
▁user	-883
▁WP	-884
lev	-885
even	-886
quest	-887
sof	-888
▁19	-889
cept	-890
▁find	-891
ild	-892
him	-893
search	-894
empl	-895
''	-896
arg	-897
ody	-898
ving	-899
leg	-900
ankyou	-901
ather	-902
thatyou	-903
▁source	-904
prop	-905
ho	-906
ability	-907
▁section	-908
▁editing	-909
graph	-910
pet	-911
▁sp	-912
peedy	-913
thats	-914
▁him	-915
▁discussion	-916
▁And	-917
▁first	-918
▁Thanks	-919
tice	-920
rough	-921
let	-922
ene	-923
▁these	-924
word	-925
times	-926
▁made	-927
ife	-928
▁edits	-929
ateg	-930
good	-931
til	-932
ER	-933
ittle	-934
▁How	-935
col	-936
ertain	-937
cess	-938
ren	-939
▁ask	-940
opyright	-941
ward	-942
des	-943
CK	-944
▁much	-945
land	-946
rever	-947
ensus	-948
ying	-949
iffere	-950
OU	-951
talkpage	-952
theb	-953
val	-954
ral	-955
ifferent	-956
econd	-957
▁3	-958
angu	-959
▁where	-960
sue	-961
many	-962
had	-963
▁used	-964
editing	-965
▁ob	-966
such	-967
"""	-968
urn	-969
post	-970
▁into	-971
sider	-972
und	-973
her	-974
itwas	-975
ute	-976
idel	-977
tobe	-978
else	-979
aving	-980
▁Al	-981
iven	-982
aps	-983
iscuss	-984
▁really	-985
thearticle	-986
ors	-987
ature	-988
using	-989
don	-990
▁every	-991
ger	-992
imply	-993
ey	-994
after	-995
fter	-996
▁most	-997
thereis	-998
please	-999
orth	-1000
orn	-1001
war	-1002
ears	-1003
),	-1004
edby	-1005
▁same	-1006
co	-1007
▁deleted	-1008
questions	-1009
load	-1010
ris	-1011
ithink	-1012
▁admin	-1013
ives	-1014
edin	-1015
ision	-1016
before	-1017
▁As	-1018
▁many	-1019
ites	-1020
▁tag	-1021
olog	-1022
viol	-1023
aterial	-1024
▁own	-1025
▁fact	-1026
tif	-1027
need	-1028
▁|	-1029
bably	-1030
▁act	-1031
could	-1032
UT	-1033
▁point	-1034
iginal	-1035
ele	-1036
▁pos	-1037
ately	-1038
inue	-1039
youre	-1040
edits	-1041
ution	-1042
alled	-1043
idont	-1044
▁word	-1045
▁comm	-1046
version	-1047
▁20	-1048
ways	-1049
tw	-1050
▁post	-1051
ep	-1052
▁cre	-1053
thel	-1054
day	-1055
book	-1056
umm	-1057
ewith	-1058
riter	-1059
ull	-1060
▁those	-1061
wp	-1062
yle	-1063
▁There	-1064
ym	-1065
propri	-1066
fe	-1067
▁before	-1068
urther	-1069
ones	-1070
etwe	-1071
ample	-1072
bes	-1073
.2	-1074
isted	-1075
ument	-1076
ello	-1077
image	-1078
14	-1079
"""".	-1080
13	-1081
▁Ar	-1082
▁reason	-1083
tributions	-1084
thankyou	-1085
▁right	-1086
fl	-1087
ook	-1088
son	-1089
omin	-1090
their	-1091
blocked	-1092
▁So	-1093
▁rel	-1094
hould	-1095
emp	-1096
▁dec	-1097
ton	-1098
olit	-1099
cep	-1100
ood	-1101
ures	-1102
15	-1103
ians	-1104
spec	-1105
http	-1106
atthe	-1107
IN	-1108
▁list	-1109
gg	-1110
18	-1111
://	-1112
pag	-1113
place	-1114
bed	-1115
▁someone	-1116
sure	-1117
least	-1118
umber	-1119
▁her	-1120
▁spec	-1121
▁part	-1122
acts	-1123
▁too	-1124
etween	-1125
ities	-1126
stat	-1127
discussion	-1128
▁still	-1129
▁after	-1130
▁two	-1131
name	-1132
eek	-1133
show	-1134
.""""	-1135
learly	-1136
▁Un	-1137
▁said	-1138
resp	-1139
ttp	-1140
▁Thank	-1141
mis	-1142
ring	-1143
stead	-1144
▁Is	-1145
▁put	-1146
▁off	-1147
vent	-1148
portant	-1149
au	-1150
itle	-1151
▁He	-1152
▁That	-1153
==	-1154
▁something	-1155
uss	-1156
▁claim	-1157
etc	-1158
anc	-1159
jo	-1160
itch	-1161
claim	-1162
sensus	-1163
▁An	-1164
▁problem	-1165
youcan	-1166
sol	-1167
essage	-1168
RE	-1169
▁But	-1170
iwas	-1171
thisarticle	-1172
tag	-1173
ared	-1174
▁going	-1175
arm	-1176
cern	-1177
wik	-1178
▁blocked	-1179
ese	-1180
ization	-1181
head	-1182
line	-1183
▁comment	-1184
vidence	-1185
ether	-1186
▁stat	-1187
▁YOU	-1188
ush	-1189
uthor	-1190
main	-1191
athe	-1192
amer	-1193
vide	-1194
posed	-1195
really	-1196
▁since	-1197
▁TH	-1198
amp	-1199
eld	-1200
▁content	-1201
▁image	-1202
seem	-1203
▁our	-1204
poin	-1205
includ	-1206
ently	-1207
▁resp	-1208
riend	-1209
▁show	-1210
bers	-1211
appe	-1212
anges	-1213
usion	-1214
▁ser	-1215
plete	-1216
levant	-1217
ially	-1218
yst	-1219
pose	-1220
ants	-1221
▁mean	-1222
ship	-1223
agr	-1224
istrator	-1225
find	-1226
chool	-1227
▁without	-1228
dec	-1229
orm	-1230
first	-1231
crip	-1232
outh	-1233
those	-1234
▁stop	-1235
body	-1236
star	-1237
interest	-1238
▁str	-1239
iving	-1240
idelines	-1241
uff	-1242
▁mention	-1243
▁St	-1244
▁Talk	-1245
plac	-1246
haps	-1247
sup	-1248
inn	-1249
▁interest	-1250
▁sure	-1251
▁take	-1252
sible	-1253
into	-1254
UTC	-1255
wer	-1256
ized	-1257
oes	-1258
)"	-1259
▁added	-1260
ft	-1261
▁top	-1262
ality	-1263
bel	-1264
▁http	-1265
ublish	-1266
ters	-1267
rop	-1268
▁What	-1269
contrib	-1270
point	-1271
ale	-1272
AN	-1273
agre	-1274
▁long	-1275
youhave	-1276
attack	-1277
sc	-1278
▁might	-1279
anguage	-1280
prove	-1281
without	-1282
▁removed	-1283
▁question	-1284
bsite	-1285
▁view	-1286
propriate	-1287
▁editors	-1288
thave	-1289
got	-1290
struc	-1291
utral	-1292
gan	-1293
present	-1294
say	-1295
uk	-1296
thatis	-1297
comment	-1298
▁place	-1299
ised	-1300
aus	-1301
anted	-1302
liable	-1303
eneral	-1304
riteria	-1305
utc	-1306
▁doesn	-1307
thep	-1308
ged	-1309
The	-1310
hav	-1311
roll	-1312
conf	-1313
ror	-1314
emplate	-1315
ouse	-1316
fort	-1317
unity	-1318
make	-1319
pg	-1320
appen	-1321
▁wikipedia	-1322
while	-1323
▁understand	-1324
cyclopedia	-1325
men	-1326
▁case	-1327
▁sugg	-1328
understand	-1329
ias	-1330
17	-1331
▁conf	-1332
aken	-1333
ax	-1334
▁feel	-1335
play	-1336
▁done	-1337
cour	-1338
anything	-1339
▁another	-1340
tore	-1341
▁sign	-1342
16	-1343
ground	-1344
▁par	-1345
▁mo	-1346
keep	-1347
ables	-1348
every	-1349
actually	-1350
ON	-1351
OV	-1352
yourself	-1353
▁never	-1354
viously	-1355
▁follow	-1356
tors	-1357
▁keep	-1358
ules	-1359
mean	-1360
problem	-1361
wiki	-1362
▁appe	-1363
aug	-1364
mit	-1365
▁better	-1366
▁We	-1367
much	-1368
dr	-1369
verif	-1370
reci	-1371
another	-1372
▁attack	-1373
?"	-1374
ident	-1375
▁ind	-1376
hasbeen	-1377
withthe	-1378
ane	-1379
etail	-1380
regard	-1381
history	-1382
arac	-1383
appy	-1384
UCK	-1385
aven	-1386
shit	-1387
▁let	-1388
ajor	-1389
inter	-1390
stit	-1391
theyare	-1392
▁.	-1393
vandalism	-1394
jus	-1395
▁No	-1396
iwill	-1397
sues	-1398
ED	-1399
▁seems	-1400
rown	-1401
comp	-1402
▁believe	-1403
ights	-1404
public	-1405
▁welcome	-1406
▁fuck	-1407
▁subject	-1408
thereare	-1409
▁personal	-1410
ret	-1411
fromthe	-1412
▁bl	-1413
▁history	-1414
▁anything	-1415
world	-1416
clude	-1417
▁free	-1418
part	-1419
both	-1420
ness	-1421
24	-1422
sidered	-1423
▁things	-1424
▁includ	-1425
fair	-1426
ower	-1427
ficial	-1428
fact	-1429
buti	-1430
▁pres	-1431
▁using	-1432
acy	-1433
??	-1434
▁links	-1435
plan	-1436
▁actually	-1437
made	-1438
iw	-1439
50	-1440
ock	-1441
big	-1442
ecess	-1443
▁check	-1444
fre	-1445
ewas	-1446
unn	-1447
ategory	-1448
ital	-1449
order	-1450
"""",	-1451
OT	-1452
onth	-1453
▁•	-1454
check	-1455
▁comments	-1456
AT	-1457
ilm	-1458
▁hope	-1459
pend	-1460
▁real	-1461
amm	-1462
23	-1463
irm	-1464
vo	-1465
lik	-1466
lead	-1467
imil	-1468
ban	-1469
coun	-1470
lim	-1471
content	-1472
▁against	-1473
these	-1474
LL	-1475
▁thing	-1476
rup	-1477
ived	-1478
reason	-1479
sign	-1480
som	-1481
▁book	-1482
oll	-1483
▁Your	-1484
▁wrong	-1485
▁opinion	-1486
peri	-1487
idea	-1488
▁didn	-1489
ritic	-1490
arning	-1491
▁note	-1492
arent	-1493
uppet	-1494
▁she	-1495
fully	-1496
bas	-1497
inu	-1498
▁policy	-1499
▁though	-1500
jpg	-1501
iwould	-1502
▁contrib	-1503
▁already	-1504
ivers	-1505
sex	-1506
istic	-1507
ourced	-1508
▁4	-1509
▁both	-1510
wrong	-1511
list	-1512
sources	-1513
!!!!!!!!	-1514
agree	-1515
fa	-1516
espec	-1517
▁explain	-1518
▁rec	-1519
tiv	-1520
vel	-1521
explain	-1522
tob	-1523
▁comp	-1524
anged	-1525
▁form	-1526
▁coun	-1527
▁term	-1528
adding	-1529
▁[	-1530
exp	-1531
something	-1532
▁current	-1533
▁found	-1534
▁For	-1535
emo	-1536
▁change	-1537
uring	-1538
▁exp	-1539
added	-1540
icture	-1541
ps	-1542
▁thanks	-1543
wantto	-1544
▁di	-1545
▁—	-1546
pov	-1547
ets	-1548
idid	-1549
▁remove	-1550
ummary	-1551
▁regard	-1552
cas	-1553
eter	-1554
::	-1555
against	-1556
▁Eng	-1557
▁few	-1558
uation	-1559
vandal	-1560
set	-1561
~~	-1562
▁else	-1563
however	-1564
uro	-1565
ews	-1566
deleted	-1567
ait	-1568
▁trying	-1569
vern	-1570
▁vandalism	-1571
mall	-1572
▁yourself	-1573
▁great	-1574
▁,	-1575
ime	-1576
▁man	-1577
better	-1578
reg	-1579
foryour	-1580
ler	-1581
long	-1582
ystem	-1583
▁little	-1584
rem	-1585
defin	-1586
nam	-1587
volved	-1588
▁agree	-1589
suck	-1590
▁others	-1591
▁above	-1592
she	-1593
▁different	-1594
ird	-1595
▁main	-1596
▁ro	-1597
already	-1598
▁nothing	-1599
things	-1600
▁review	-1601
welcome	-1602
▁won	-1603
▁7	-1604
ired	-1605
might	-1606
▁text	-1607
agraph	-1608
▁while	-1609
tofthe	-1610
▁ass	-1611
olicies	-1612
personal	-1613
direct	-1614
users	-1615
▁copyright	-1616
entence	-1617
unc	-1618
imilar	-1619
du	-1620
▁got	-1621
tot	-1622
upid	-1623
▁vandal	-1624
▁speedy	-1625
through	-1626
ingthat	-1627
ivil	-1628
down	-1629
ball	-1630
peak	-1631
wouldbe	-1632
▁care	-1633
others	-1634
▁must	-1635
▁fair	-1636
ross	-1637
goingto	-1638
ef	-1639
comments	-1640
▁years	-1641
__	-1642
jects	-1643
cal	-1644
omm	-1645
▁consider	-1646
sel	-1647
▁issue	-1648
▁partic	-1649
found	-1650
itation	-1651
▁ent	-1652
onse	-1653
clusion	-1654
▁war	-1655
ledge	-1656
iber	-1657
thesame	-1658
▁6	-1659
▁tell	-1660
rote	-1661
IT	-1662
▁request	-1663
plic	-1664
yp	-1665
▁seem	-1666
vice	-1667
ended	-1668
crib	-1669
give	-1670
dif	-1671
yes	-1672
anti	-1673
▁questions	-1674
ertainly	-1675
▁AN	-1676
ported	-1677
onmy	-1678
ier	-1679
WW	-1680
havi	-1681
lin	-1682
che	-1683
ield	-1684
▁anyone	-1685
▁Also	-1686
▁through	-1687
remove	-1688
uary	-1689
▁app	-1690
▁call	-1691
thet	-1692
ule	-1693
above	-1694
risti	-1695
idd	-1696
22	-1697
▁give	-1698
▁last	-1699
unt	-1700
usic	-1701
iograph	-1702
▁discuss	-1703
uly	-1704
rovers	-1705
emy	-1706
arb	-1707
▁matter	-1708
▁making	-1709
▁res	-1710
▁ref	-1711
care	-1712
action	-1713
anarticle	-1714
fam	-1715
ising	-1716
maybe	-1717
100	-1718
....	-1719
▁rather	-1720
▁IP	-1721
willbe	-1722
english	-1723
pletely	-1724
oron	-1725
ingle	-1726
theres	-1727
especially	-1728
non	-1729
ode	-1730
sare	-1731
ohn	-1732
aper	-1733
▁continue	-1734
nothing	-1735
asons	-1736
▁down	-1737
mention	-1738
aboutthe	-1739
alse	-1740
ationof	-1741
▁0	-1742
change	-1743
organ	-1744
ustr	-1745
umb	-1746
arge	-1747
vic	-1748
▁ph	-1749
▁reference	-1750
review	-1751
ari	-1752
▁defin	-1753
year	-1754
▁come	-1755
▁5	-1756
sin	-1757
style	-1758
ump	-1759
▁non	-1760
uture	-1761
doesnt	-1762
opinion	-1763
▁My	-1764
mind	-1765
tical	-1766
▁says	-1767
ES	-1768
▁reliable	-1769
address	-1770
▁address	-1771
write	-1772
section	-1773
▁User	-1774
▁Why	-1775
▁best	-1776
tention	-1777
▁<	-1778
▁doing	-1779
puppet	-1780
ified	-1781
oub	-1782
▁dr	-1783
images	-1784
ecan	-1785
▁Hi	-1786
isthe	-1787
▁cour	-1788
removed	-1789
written	-1790
pret	-1791
olitical	-1792
position	-1793
ulti	-1794
uman	-1795
▁mis	-1796
▁try	-1797
▁site	-1798
▁dif	-1799
consider	-1800
soci	-1801
▁world	-1802
atever	-1803
▁high	-1804
▁material	-1805
▁star	-1806
ingand	-1807
edic	-1808
FF	-1809
aswell	-1810
call	-1811
vert	-1812
▁inter	-1813
igg	-1814
▁8	-1815
bre	-1816
▁viol	-1817
original	-1818
roject	-1819
▁THE	-1820
prot	-1821
ify	-1822
probably	-1823
ticed	-1824
▁references	-1825
▁Do	-1826
velop	-1827
▁least	-1828
around	-1829
▁far	-1830
ING	-1831
ina	-1832
▁cr	-1833
leave	-1834
▁correct	-1835
policy	-1836
econ	-1837
date	-1838
iment	-1839
▁arg	-1840
30	-1841
email	-1842
doesnot	-1843
▁created	-1844
▁isn	-1845
medi	-1846
▁Amer	-1847
▁group	-1848
ides	-1849
ards	-1850
eleted	-1851
▁bel	-1852
follow	-1853
▁simply	-1854
ements	-1855
▁recent	-1856
isan	-1857
ritish	-1858
ivid	-1859
bere	-1860
▁leave	-1861
urk	-1862
actly	-1863
▁col	-1864
youmay	-1865
edand	-1866
Th	-1867
▁enough	-1868
IS	-1869
oneofthe	-1870
urch	-1871
▁around	-1872
▁probably	-1873
appear	-1874
arr	-1875
ilit	-1876
alf	-1877
▁br	-1878
peedydeletion	-1879
group	-1880
never	-1881
correct	-1882
known	-1883
sib	-1884
▁end	-1885
▁However	-1886
cor	-1887
=""""	-1888
▁English	-1889
cur	-1890
ecom	-1891
ology	-1892
ev	-1893
ulation	-1894
ole	-1895
lam	-1896
▁play	-1897
iles	-1898
ecessary	-1899
▁original	-1900
embers	-1901
illion	-1902
selves	-1903
!"	-1904
hy	-1905
ica	-1906
iar	-1907
▁etc	-1908
los	-1909
▁adding	-1910
iec	-1911
appropriate	-1912
25	-1913
▁between	-1914
ats	-1915
ording	-1916
havebeen	-1917
hi	-1918
ours	-1919
▁9	-1920
omen	-1921
inde	-1922
cription	-1923
cial	-1924
iness	-1925
andbox	-1926
▁thought	-1927
whow	-1928
iter	-1929
ues	-1930
mission	-1931
▁account	-1932
sugg	-1933
provid	-1934
▁reverted	-1935
continue	-1936
ublished	-1937
▁example	-1938
▁Wiki	-1939
▁stand	-1940
ansl	-1941
roduc	-1942
otes	-1943
onthis	-1944
ref	-1945
lose	-1946
▁version	-1947
ogn	-1948
OR	-1949
andm	-1950
▁consensus	-1951
partic	-1952
▁users	-1953
▁delete	-1954
mage	-1955
▁life	-1956
whichis	-1957
igin	-1958
atic	-1959
liketo	-1960
▁bad	-1961
▁Can	-1962
contributions	-1963
reciate	-1964
que	-1965
▁min	-1966
wes	-1967
aracter	-1968
side	-1969
▁reg	-1970
stalk	-1971
joy	-1972
▁id	-1973
iknow	-1974
kind	-1975
▁They	-1976
▁write	-1977
▁lot	-1978
tire	-1979
▁te	-1980
▁either	-1981
allow	-1982
anned	-1983
editors	-1984
take	-1985
bythe	-1986
riticism	-1987
istof	-1988
great	-1989
relevant	-1990
▁kind	-1991
ername	-1992
light	-1993
haven	-1994
ety	-1995
asyou	-1996
bi	-1997
▁research	-1998
jew	-1999
iously	-2000
▁bit	-2001
doing	-2002
▁important	-2003
▁To	-2004
earch	-2005
▁clear	-2006
free	-2007
▁old	-2008
eme	-2009
ences	-2010
shouldbe	-2011
empt	-2012
color	-2013
ron	-2014
doyou	-2015
▁On	-2016
high	-2017
bal	-2018
ests	-2019
ye	-2020
away	-2021
▁called	-2022
▁needs	-2023
ling	-2024
enough	-2025
rael	-2026
urope	-2027
▁Ad	-2028
▁notable	-2029
wikipedias	-2030
ofthis	-2031
▁contributions	-2032
given	-2033
irc	-2034
atically	-2035
sk	-2036
▁message	-2037
alo	-2038
inthis	-2039
▁val	-2040
ino	-2041
gether	-2042
research	-2043
tryingto	-2044
199	-2045
▁day	-2046
▁specific	-2047
donot	-2048
lean	-2049
▁support	-2050
everal	-2051
isthat	-2052
har	-2053
wise	-2054
ai	-2055
▁prom	-2056
move	-2057
ections	-2058
still	-2059
isit	-2060
imple	-2061
edthe	-2062
enn	-2063
between	-2064
case	-2065
enc	-2066
www	-2067
author	-2068
edonot	-2069
AL	-2070
bad	-2071
isting	-2072
whether	-2073
ogle	-2074
pleases	-2075
enerally	-2076
arious	-2077
mark	-2078
els	-2079
▁info	-2080
ural	-2081
ances	-2082
loaded	-2083
▁er	-2084
▁ever	-2085
mar	-2086
▁lead	-2087
▁evidence	-2088
▁images	-2089
accur	-2090
info	-2091
itive	-2092
since	-2093
ury	-2094
liables	-2095
ient	-2096
rather	-2097
▁number	-2098
reek	-2099
administrator	-2100
ories	-2101
real	-2102
anyone	-2103
ofs	-2104
asthe	-2105
imag	-2106
tig	-2107
logy	-2108
▁US	-2109
fac	-2110
best	-2111
▁move	-2112
80	-2113
▁second	-2114
ected	-2115
irl	-2116
▁notice	-2117
etr	-2118
iversity	-2119
une	-2120
▁website	-2121
▁clearly	-2122
▁given	-2123
fuckyou	-2124
▁Or	-2125
ults	-2126
gen	-2127
▁saying	-2128
▁always	-2129
thath	-2130
▁{	-2131
▁mod	-2132
believe	-2133
ividual	-2134
▁having	-2135
hes	-2136
addition	-2137
consensus	-2138
icate	-2139
uments	-2140
ofess	-2141
elling	-2142
requ	-2143
▁pleas	-2144
▁encyclopedia	-2145
related	-2146
periment	-2147
accept	-2148
bro	-2149
wards	-2150
htm	-2151
tome	-2152
lect	-2153
▁allow	-2154
itr	-2155
▁concern	-2156
ped	-2157
yn	-2158
ofm	-2159
▁state	-2160
oman	-2161
▁quite	-2162
▁yet	-2163
onest	-2164
makes	-2165
possible	-2166
instead	-2167
too	-2168
▁written	-2169
ensive	-2170
ales	-2171
▁leg	-2172
verifi	-2173
bedeleted	-2174
▁public	-2175
planation	-2176
kill	-2177
needto	-2178
law	-2179
ties	-2180
arenot	-2181
far	-2182
prom	-2183
years	-2184
cience	-2185
friend	-2186
issue	-2187
ihope	-2188
cant	-2189
nic	-2190
▁true	-2191
getting	-2192
pop	-2193
intern	-2194
member	-2195
▁criteria	-2196
states	-2197
onsense	-2198
agood	-2199
afew	-2200
▁ans	-2201
ples	-2202
▁hard	-2203
40	-2204
oot	-2205
going	-2206
state	-2207
itations	-2208
▁plac	-2209
▁guidelines	-2210
ports	-2211
▁fam	-2212
estab	-2213
pute	-2214
▁language	-2215
further	-2216
until	-2217
▁All	-2218
dom	-2219
ley	-2220
▁Just	-2221
duce	-2222
towikipedia	-2223
iting	-2224
reverted	-2225
someone	-2226
▁further	-2227
tow	-2228
cons	-2229
board	-2230
note	-2231
produc	-2232
areyou	-2233
ani	-2234
asc	-2235
created	-2236
rol	-2237
▁ins	-2238
ape	-2239
last	-2240
▁makes	-2241
reating	-2242
lad	-2243
▁POV	-2244
▁suggest	-2245
adem	-2246
account	-2247
▁sorry	-2248
▁considered	-2249
ov	-2250
andthen	-2251
toc	-2252
nor	-2253
chol	-2254
▁fr	-2255
▁wiki	-2256
ristian	-2257
▁stud	-2258
ox	-2259
class	-2260
▁Hello	-2261
33	-2262
▁whether	-2263
ging	-2264
ourn	-2265
▁until	-2266
unch	-2267
iction	-2268
establish	-2269
allthe	-2270
loc	-2271
must	-2272
▁provid	-2273
▁)	-2274
said	-2275
references	-2276
along	-2277
acom	-2278
▁words	-2279
concern	-2280
▁bas	-2281
request	-2282
urd	-2283
▁Any	-2284
▁fe	-2285
feel	-2286
ending	-2287
vernment	-2288
king	-2289
bum	-2290
▁cannot	-2291
▁instead	-2292
apage	-2293
open	-2294
press	-2295
."""	-2296
ifyouhave	-2297
fors	-2298
▁author	-2299
anyway	-2300
nts	-2301
▁Q	-2302
Re	-2303
gre	-2304
▁changes	-2305
▁ti	-2306
▁revert	-2307
bem	-2308
▁idea	-2309
▁copy	-2310
▁Sh	-2311
whatis	-2312
▁&	-2313
ificant	-2314
▁poin	-2315
apan	-2316
▁less	-2317
apro	-2318
▁wish	-2319
▁happen	-2320
ahah	-2321
hind	-2322
▁ear	-2323
▁several	-2324
mos	-2325
ourc	-2326
important	-2327
uses	-2328
moved	-2329
ested	-2330
▁left	-2331
;=	-2332
unk	-2333
oo	-2334
▁inde	-2335
▁means	-2336
tomatically	-2337
imnot	-2338
▁title	-2339
igno	-2340
▁sc	-2341
learn	-2342
cepted	-2343
▁particular	-2344
▁listed	-2345
ture	-2346
▁May	-2347
peop	-2348
▁FUCK	-2349
▁bec	-2350
▁pop	-2351
erely	-2352
utes	-2353
▁present	-2354
asy	-2355
making	-2356
▁IS	-2357
ldes	-2358
sever	-2359
stud	-2360
alt	-2361
torical	-2362
sourced	-2363
andyou	-2364
guidelines	-2365
60	-2366
entif	-2367
▁yes	-2368
▁following	-2369
len	-2370
howto	-2371
specific	-2372
▁refer	-2373
fect	-2374
▁addition	-2375
ams	-2376
ata	-2377
outof	-2378
eg	-2379
eding	-2380
andc	-2381
▁week	-2382
material	-2383
oper	-2384
tribution	-2385
▁10	-2386
asan	-2387
▁mer	-2388
▁each	-2389
foryou	-2390
cc	-2391
watch	-2392
abor	-2393
han	-2394
ailable	-2395
▁requ	-2396
atleast	-2397
▁entire	-2398
OO	-2399
▁mind	-2400
oid	-2401
alth	-2402
ison	-2403
thed	-2404
27	-2405
ery	-2406
▁possible	-2407
arian	-2408
▁Con	-2409
subject	-2410
god	-2411
hand	-2412
arily	-2413
amed	-2414
source	-2415
▁disc	-2416
news	-2417
▁proper	-2418
▁New	-2419
thefirst	-2420
delete	-2421
inthearticle	-2422
omething	-2423
righ	-2424
▁whole	-2425
called	-2426
▁co	-2427
usiness	-2428
▁mentioned	-2429
pho	-2430
ke	-2431
▁media	-2432
ony	-2433
whatyou	-2434
▁course	-2435
itely	-2436
sume	-2437
topic	-2438
▁template	-2439
▁18	-2440
iece	-2441
oted	-2442
▁year	-2443
000	-2444
atr	-2445
entific	-2446
▁ext	-2447
la	-2448
onew	-2449
igger	-2450
issues	-2451
proper	-2452
changes	-2453
links	-2454
cient	-2455
apr	-2456
reme	-2457
▁three	-2458
idth	-2459
▁ter	-2460
LE	-2461
wed	-2462
▁Be	-2463
todo	-2464
AR	-2465
ases	-2466
yet	-2467
mod	-2468
▁times	-2469
contribs	-2470
background	-2471
▁Z	-2472
2005	-2473
jud	-2474
always	-2475
▁fa	-2476
▁seen	-2477
45	-2478
turn	-2479
ounds	-2480
▁based	-2481
igion	-2482
current	-2483
american	-2484
▁prot	-2485
forex	-2486
▁statement	-2487
aves	-2488
▁once	-2489
▁detail	-2490
▁include	-2491
▁start	-2492
perhaps	-2493
1.	-2494
You	-2495
▁sur	-2496
▁major	-2497
ulture	-2498
onwikipedia	-2499
▁friend	-2500
lection	-2501
gain	-2502
EN	-2503
▁issues	-2504
igure	-2505
adv	-2506
anging	-2507
ots	-2508
inf	-2509
oubt	-2510
▁facts	-2511
tries	-2512
oph	-2513
aster	-2514
▁spe	-2515
▁date	-2516
fortun	-2517
AS	-2518
oso	-2519
▁head	-2520
▁au	-2521
uslim	-2522
▁style	-2523
stobe	-2524
▁cor	-2525
agreewith	-2526
▁topic	-2527
orse	-2528
listed	-2529
▁ok	-2530
▁pret	-2531
ouble	-2532
▁u	-2533
oke	-2534
fordeletion	-2535
ituation	-2536
IC	-2537
andh	-2538
ford	-2539
peated	-2540
ago	-2541
▁pho	-2542
▁sense	-2543
canbe	-2544
▁Ind	-2545
isnt	-2546
exist	-2547
izing	-2548
torial	-2549
tohave	-2550
▁NOT	-2551
▁sock	-2552
29	-2553
httpww	-2554
▁general	-2555
}}	-2556
pers	-2557
encyclop	-2558
ney	-2559
ffic	-2560
stre	-2561
ert	-2562
ignor	-2563
othere	-2564
▁Tr	-2565
inmy	-2566
▁Pro	-2567
seems	-2568
OM	-2569
▁administrator	-2570
▁...	-2571
▁position	-2572
▁hand	-2573
arently	-2574
ilitary	-2575
cument	-2576
tothearticle	-2577
thathe	-2578
▁==	-2579
▁set	-2580
trad	-2581
ald	-2582
pur	-2583
▁Go	-2584
▁fl	-2585
life	-2586
havior	-2587
sthe	-2588
respond	-2589
onn	-2590
bate	-2591
ambig	-2592
iver	-2593
▁Not	-2594
flu	-2595
ided	-2596
▁myself	-2597
isf	-2598
▁four	-2599
HA	-2600
ional	-2601
▁dont	-2602
sor	-2603
2.	-2604
notable	-2605
sm	-2606
echn	-2607
text	-2608
▁provide	-2609
▁fix	-2610
tomake	-2611
onot	-2612
sorry	-2613
answer	-2614
revert	-2615
ingfor	-2616
▁“	-2617
didnt	-2618
Person	-2619
either	-2620
solute	-2621
wikip	-2622
cientific	-2623
mm	-2624
edwith	-2625
ung	-2626
70	-2627
tosee	-2628
▁days	-2629
erman	-2630
direc	-2631
fromediting	-2632
▁create	-2633
aff	-2634
anal	-2635
sthat	-2636
den	-2637
four	-2638
emon	-2639
asp	-2640
official	-2641
▁accept	-2642
ationale	-2643
course	-2644
▁organ	-2645
structive	-2646
ister	-2647
ounts	-2648
▁sentence	-2649
▁open	-2650
oney	-2651
oin	-2652
educ	-2653
▁nomin	-2654
▁answer	-2655
ultiple	-2656
hip	-2657
2006	-2658
essages	-2659
lack	-2660
▁known	-2661
▁law	-2662
atall	-2663
means	-2664
erb	-2665
ran	-2666
▁appropriate	-2667
▁rules	-2668
pen	-2669
fucking	-2670
ouple	-2671
CT	-2672
▁2005	-2673
although	-2674
anew	-2675
clear	-2676
signed	-2677
▁included	-2678
erg	-2679
▁big	-2680
▁changed	-2681
cap	-2682
▁See	-2683
itim	-2684
86	-2685
▁su	-2686
onder	-2687
▁neutral	-2688
ama	-2689
theonly	-2690
vision	-2691
▁oc	-2692
▁started	-2693
start	-2694
ruptive	-2695
fag	-2696
imary	-2697
▁redirect	-2698
ades	-2699
8.	-2700
ential	-2701
gay	-2702
qual	-2703
worth	-2704
augh	-2705
bsites	-2706
▁school	-2707
refer	-2708
▁regarding	-2709
▁process	-2710
toyou	-2711
andd	-2712
once	-2713
▁getting	-2714
fat	-2715
umbers	-2716
ency	-2717
▁cons	-2718
ires	-2719
copy	-2720
▁Some	-2721
considered	-2722
ictures	-2723
▁bro	-2724
onths	-2725
website	-2726
▁Se	-2727
def	-2728
aries	-2729
ffec	-2730
▁bre	-2731
eless	-2732
amples	-2733
rac	-2734
▁pur	-2735
onsid	-2736
rench	-2737
tosay	-2738
▁web	-2739
aged	-2740
gress	-2741
several	-2742
youknow	-2743
In	-2744
rior	-2745
neutral	-2746
4.	-2747
ithas	-2748
matter	-2749
andp	-2750
▁away	-2751
create	-2752
oy	-2753
▁ir	-2754
▁relevant	-2755
▁At	-2756
ihad	-2757
itsnot	-2758
▁His	-2759
volution	-2760
Talk	-2761
sert	-2762
illars	-2763
process	-2764
▁eng	-2765
avid	-2766
▁Now	-2767
thod	-2768
26	-2769
hard	-2770
▁short	-2771
afr	-2772
▁Here	-2773
anon	-2774
tional	-2775
ware	-2776
▁full	-2777
▁learn	-2778
aring	-2779
aul	-2780
▁cent	-2781
pression	-2782
hat	-2783
met	-2784
oneof	-2785
onyour	-2786
▁sol	-2787
wish	-2788
ks	-2789
ferenced	-2790
99	-2791
ildren	-2792
aft	-2793
ification	-2794
▁Ex	-2795
guy	-2796
▁however	-2797
rest	-2798
lier	-2799
notbe	-2800
thefact	-2801
imin	-2802
▁line	-2803
acon	-2804
▁bu	-2805
▁paragraph	-2806
▁cap	-2807
lict	-2808
sibly	-2809
thnic	-2810
evidence	-2811
stop	-2812
including	-2813
vir	-2814
▁def	-2815
andid	-2816
utorial	-2817
▁including	-2818
jan	-2819
spir	-2820
having	-2821
roy	-2822
▁names	-2823
ournal	-2824
enot	-2825
uting	-2826
.)	-2827
▁order	-2828
sy	-2829
html	-2830
▁able	-2831
▁produc	-2832
▁picture	-2833
improve	-2834
▁Sp	-2835
plies	-2836
shave	-2837
edas	-2838
cock	-2839
▁summary	-2840
enced	-2841
ster	-2842
title	-2843
youshould	-2844
ping	-2845
▁Man	-2846
▁Per	-2847
▁When	-2848
ae	-2849
▁shit	-2850
faith	-2851
involved	-2852
particular	-2853
serv	-2854
▁American	-2855
cell	-2856
▁improve	-2857
car	-2858
left	-2859
▁looking	-2860
align	-2861
px	-2862
▁Image	-2863
▁sex	-2864
▁interested	-2865
▁wrote	-2866
28	-2867
▁taken	-2868
likely	-2869
band	-2870
entry	-2871
different	-2872
▁stuff	-2873
Ar	-2874
parate	-2875
alkpage	-2876
▁similar	-2877
facts	-2878
▁claims	-2879
rid	-2880
true	-2881
AB	-2882
▁later	-2883
full	-2884
porting	-2885
below	-2886
ering	-2887
clearly	-2888
!!!	-2889
erous	-2890
entire	-2891
ihaven	-2892
▁next	-2893
55	-2894
abit	-2895
words	-2896
toadd	-2897
elfree	-2898
ains	-2899
ored	-2900
2010	-2901
whole	-2902
ribe	-2903
▁cover	-2904
gin	-2905
black	-2906
notability	-2907
▁warning	-2908
anda	-2909
icans	-2910
language	-2911
▁=	-2912
67	-2913
cho	-2914
med	-2915
▁notability	-2916
inst	-2917
power	-2918
toget	-2919
▁wanted	-2920
forc	-2921
andre	-2922
points	-2923
ingit	-2924
▁watch	-2925
EDI	-2926
tofind	-2927
thereisno	-2928
thatwas	-2929
aperson	-2930
▁search	-2931
ikipedian	-2932
OL	-2933
myself	-2934
▁appears	-2935
haves	-2936
owith	-2937
ternal	-2938
▁attacks	-2939
▁–	-2940
done	-2941
alook	-2942
andnot	-2943
disc	-2944
▁project	-2945
fortunately	-2946
▁related	-2947
eah	-2948
ner	-2949
▁writing	-2950
ully	-2951
ijust	-2952
tick	-2953
▁adv	-2954
attle	-2955
▁itself	-2956
▁removing	-2957
theg	-2958
plied	-2959
atured	-2960
▁maybe	-2961
aware	-2962
69	-2963
tothis	-2964
thatthis	-2965
uted	-2966
6.	-2967
statement	-2968
lol	-2969
itself	-2970
alotof	-2971
via	-2972
▁stay	-2973
ingyour	-2974
tober	-2975
week	-2976
ofthes	-2977
onmytalkpage	-2978
del	-2979
dy	-2980
▁direct	-2981
2007	-2982
▁film	-2983
bar	-2984
IG	-2985
two	-2986
notice	-2987
placed	-2988
inv	-2989
''''	-2990
thern	-2991
hello	-2992
unless	-2993
▁Com	-2994
US	-2995
emplates	-2996
▁currently	-2997
redit	-2998
inning	-2999
took	-3000
partof	-3001
belie	-3002
▁faith	-3003
▁appear	-3004
tific	-3005
reed	-3006
▁log	-3007
WWWW	-3008
▁within	-3009
▁Pr	-3010
pat	-3011
▁single	-3012
anex	-3013
tell	-3014
ofthem	-3015
2008	-3016
▁hi	-3017
▁Mar	-3018
▁self	-3019
overed	-3020
!!!!!!!!!!!!!!!!	-3021
avor	-3022
illy	-3023
▁exist	-3024
usp	-3025
solutely	-3026
zer	-3027
omes	-3028
▁mist	-3029
▁{{	-3030
include	-3031
▁common	-3032
thanksfor	-3033
pleasere	-3034
eds	-3035
▁fail	-3036
therefore	-3037
gram	-3038
▁del	-3039
▁class	-3040
ct	-3041
▁community	-3042
▁policies	-3043
▁DI	-3044
pendent	-3045
oth	-3046
▁everyone	-3047
75	-3048
national	-3049
▁country	-3050
ype	-3051
itisnot	-3052
community	-3053
▁completely	-3054
rights	-3055
thatit	-3056
butit	-3057
econt	-3058
antly	-3059
issing	-3060
▁official	-3061
ensor	-3062
▁pretty	-3063
▁Le	-3064
vestig	-3065
uh	-3066
ullshit	-3067
actions	-3068
ma	-3069
mber	-3070
organization	-3071
ior	-3072
receding	-3073
roversial	-3074
▁came	-3075
▁record	-3076
▁WI	-3077
names	-3078
▁pass	-3079
reference	-3080
▁nor	-3081
whatever	-3082
▁false	-3083
uge	-3084
abou	-3085
ament	-3086
ms	-3087
days	-3088
actic	-3089
dated	-3090
ceived	-3091
▁involved	-3092
vie	-3093
puter	-3094
thos	-3095
ingthis	-3096
lest	-3097
▁system	-3098
tes	-3099
heers	-3100
ingabout	-3101
adi	-3102
field	-3103
▁certainly	-3104
▁/	-3105
mak	-3106
mitted	-3107
ellow	-3108
jective	-3109
____	-3110
▁states	-3111
▁power	-3112
morethan	-3113
▁news	-3114
truth	-3115
POV	-3116
wikipediaorg	-3117
▁FA	-3118
inan	-3119
wel	-3120
avoid	-3121
▁perhaps	-3122
ograph	-3123
ihopeyou	-3124
ben	-3125
stanti	-3126
▁accur	-3127
ais	-3128
etalk	-3129
icking	-3130
continu	-3131
▁ago	-3132
▁during	-3133
48	-3134
▁guess	-3135
▁Comm	-3136
lat	-3137
pis	-3138
ellig	-3139
▁wasn	-3140
reated	-3141
▁stupid	-3142
pert	-3143
igious	-3144
happy	-3145
hope	-3146
ried	-3147
esp	-3148
▁edited	-3149
▁TO	-3150
ions	-3151
▁apo	-3152
ingwith	-3153
90	-3154
▁tot	-3155
stay	-3156
aming	-3157
bol	-3158
ussian	-3159
ptember	-3160
▁AND	-3161
▁argument	-3162
inform	-3163
stuff	-3164
▁past	-3165
later	-3166
ottom	-3167
usive	-3168
arnstar	-3169
iliar	-3170
ulous	-3171
ouch	-3172
paragraph	-3173
anish	-3174
▁Well	-3175
▁deal	-3176
▁suck	-3177
▁love	-3178
perience	-3179
35	-3180
lets	-3181
▁report	-3182
feelfree	-3183
stitution	-3184
▁arch	-3185
ymous	-3186
leased	-3187
lege	-3188
ofyour	-3189
sem	-3190
unic	-3191
▁respond	-3192
project	-3193
therewas	-3194
youwillbe	-3195
21	-3196
fix	-3197
▁wonder	-3198
▁entry	-3199
theh	-3200
ersto	-3201
77	-3202
▁asked	-3203
ofc	-3204
iddle	-3205
little	-3206
▁placed	-3207
ague	-3208
▁truth	-3209
quite	-3210
enwikipediaorg	-3211
face	-3212
▁looks	-3213
amn	-3214
john	-3215
united	-3216
film	-3217
discuss	-3218
▁especially	-3219
▁fucking	-3220
net	-3221
encyclopedia	-3222
mon	-3223
asily	-3224
roduction	-3225
ifyoucontinue	-3226
▁nice	-3227
▁definition	-3228
tri	-3229
ares	-3230
thebest	-3231
▁everything	-3232
loy	-3233
85	-3234
heis	-3235
legal	-3236
irth	-3237
▁small	-3238
ofthearticle	-3239
thepage	-3240
vertical	-3241
pass	-3242
▁game	-3243
▁future	-3244
argument	-3245
oting	-3246
▁response	-3247
helpme	-3248
vil	-3249
▁talking	-3250
▁threat	-3251
didnot	-3252
oud	-3253
▁useful	-3254
fit	-3255
vis	-3256
sequ	-3257
sock	-3258
tra	-3259
web	-3260
fail	-3261
▁One	-3262
istan	-3263
▁below	-3264
▁posted	-3265
reliables	-3266
based	-3267
books	-3268
elt	-3269
It	-3270
dition	-3271
▁men	-3272
anote	-3273
appro	-3274
cribe	-3275
oment	-3276
stupid	-3277
atholic	-3278
bruary	-3279
estion	-3280
theywere	-3281
ategories	-3282
width	-3283
▁2006	-3284
eder	-3285
emore	-3286
valid	-3287
andit	-3288
ada	-3289
▁belie	-3290
ongs	-3291
▁noticed	-3292
44	-3293
andom	-3294
▁vide	-3295
quests	-3296
accurate	-3297
verifiable	-3298
fs	-3299
withthis	-3300
agaz	-3301
shole	-3302
▁national	-3303
upport	-3304
▁quote	-3305
message	-3306
▁due	-3307
▁test	-3308
upload	-3309
▁side	-3310
ampa	-3311
▁kill	-3312
econom	-3313
arly	-3314
ott	-3315
wil	-3316
andis	-3317
▁gay	-3318
▁fin	-3319
ali	-3320
▁speak	-3321
bur	-3322
emocr	-3323
ished	-3324
lood	-3325
ofmy	-3326
void	-3327
apers	-3328
▁photo	-3329
▁reply	-3330
▁working	-3331
▁published	-3332
ze	-3333
istent	-3334
hed	-3335
39	-3336
HAHA	-3337
▁anti	-3338
suchas	-3339
pointof	-3340
thought	-3341
forthis	-3342
▁reasons	-3343
inks	-3344
▁knowledge	-3345
aste	-3346
ns	-3347
editwar	-3348
odes	-3349
▁describ	-3350
AG	-3351
▁De	-3352
▁lack	-3353
deal	-3354
▁exactly	-3355
wikipediat	-3356
▁Don	-3357
aboutthis	-3358
useful	-3359
asing	-3360
unny	-3361
▁intern	-3362
▁appreciate	-3363
abel	-3364
▁Again	-3365
▁today	-3366
usedto	-3367
hit	-3368
today	-3369
▁reading	-3370
umberof	-3371
▁develop	-3372
ibr	-3373
portance	-3374
arnings	-3375
▁15	-3376
represent	-3377
ofit	-3378
acedon	-3379
yout	-3380
ached	-3381
asked	-3382
job	-3383
▁17	-3384
ableto	-3385
ecould	-3386
iography	-3387
imes	-3388
rist	-3389
actual	-3390
▁large	-3391
iod	-3392
mail	-3393
▁hold	-3394
▁become	-3395
edily	-3396
confirm	-3397
amin	-3398
▁2007	-3399
thus	-3400
ounder	-3401
rected	-3402
▁Gr	-3403
esus	-3404
ception	-3405
writing	-3406
▁mark	-3407
▁valid	-3408
▁OF	-3409
ffect	-3410
offic	-3411
ampaign	-3412
youwillbeblocked	-3413
edinthe	-3414
anyother	-3415
oss	-3416
▁guy	-3417
iamnot	-3418
warning	-3419
▁meaning	-3420
▁worth	-3421
pol	-3422
▁jus	-3423
common	-3424
▁remain	-3425
▁contribs	-3426
mp	-3427
etal	-3428
▁pat	-3429
ficult	-3430
▁strong	-3431
pected	-3432
▁problems	-3433
▁inc	-3434
▁rac	-3435
hold	-3436
▁car	-3437
aying	-3438
atives	-3439
▁provided	-3440
▁along	-3441
▁tried	-3442
anim	-3443
becaus	-3444
▁happy	-3445
started	-3446
appreciate	-3447
▁political	-3448
nomin	-3449
▁John	-3450
itor	-3451
omeone	-3452
esof	-3453
thenew	-3454
thesam	-3455
ifthe	-3456
bet	-3457
iot	-3458
▁soon	-3459
▁took	-3460
je	-3461
love	-3462
themain	-3463
pleasedonot	-3464
due	-3465
redits	-3466
uz	-3467
icould	-3468
told	-3469
▁thank	-3470
37	-3471
emonstr	-3472
3.	-3473
2004	-3474
▁sort	-3475
ibility	-3476
▁needed	-3477
mad	-3478
each	-3479
cover	-3480
▁often	-3481
▁continu	-3482
▁dispute	-3483
▁certain	-3484
▁Fr	-3485
threat	-3486
tories	-3487
soon	-3488
whenyou	-3489
avery	-3490
▁stated	-3491
yourname	-3492
hewas	-3493
access	-3494
accord	-3495
obviously	-3496
▁aware	-3497
ecl	-3498
gative	-3499
▁email	-3500
▁reverting	-3501
quote	-3502
▁WH	-3503
erve	-3504
▁rule	-3505
▁gen	-3506
provide	-3507
▁Are	-3508
▁haven	-3509
deleting	-3510
andw	-3511
toyour	-3512
definition	-3513
personalattack	-3514
likethe	-3515
origin	-3516
icant	-3517
▁remember	-3518
▁Fe	-3519
youwill	-3520
detail	-3521
▁username	-3522
reverting	-3523
userpage	-3524
ifyouhaveany	-3525
recent	-3526
47	-3527
▁typ	-3528
▁turn	-3529
iographies	-3530
trans	-3531
▁vandalize	-3532
▁Ed	-3533
abe	-3534
boy	-3535
bitch	-3536
▁sandbox	-3537
ilos	-3538
incip	-3539
entof	-3540
exactly	-3541
unblock	-3542
agreat	-3543
record	-3544
ideas	-3545
quality	-3546
▁confirm	-3547
ididnt	-3548
lot	-3549
▁uploaded	-3550
completely	-3551
65	-3552
lex	-3553
edthat	-3554
ewikipedia	-3555
anguages	-3556
odd	-3557
foot	-3558
party	-3559
▁file	-3560
▁United	-3561
▁points	-3562
agu	-3563
photo	-3564
iculous	-3565
▁sl	-3566
User	-3567
init	-3568
▁cho	-3569
andthat	-3570
▁status	-3571
▁Regard	-3572
OW	-3573
▁By	-3574
▁deleting	-3575
▁explanation	-3576
:0	-3577
enjoy	-3578
rief	-3579
born	-3580
▁24	-3581
▁whatever	-3582
ateyou	-3583
ibelieve	-3584
nom	-3585
working	-3586
early	-3587
orr	-3588
This	-3589
individual	-3590
beend	-3591
▁five	-3592
ideline	-3593
68	-3594
tomy	-3595
cup	-3596
ihav	-3597
▁sent	-3598
▁likely	-3599
short	-3600
▁shows	-3601
reciated	-3602
index	-3603
49	-3604
▁Cl	-3605
▁av	-3606
▁Good	-3607
▁*	-3608
tributor	-3609
▁obviously	-3610
▁fac	-3611
No	-3612
biased	-3613
▁terms	-3614
irs	-3615
▁saw	-3616
▁character	-3617
aby	-3618
toh	-3619
▁books	-3620
bor	-3621
itude	-3622
▁members	-3623
white	-3624
▁taking	-3625
▁description	-3626
mine	-3627
quested	-3628
peoples	-3629
▁almost	-3630
beg	-3631
volve	-3632
inthes	-3633
▁unless	-3634
itration	-3635
policies	-3636
ternative	-3637
rase	-3638
▁tags	-3639
bin	-3640
▁appro	-3641
▁job	-3642
otheredi	-3643
▁lic	-3644
▁avoid	-3645
een	-3646
▁bi	-3647
develop	-3648
▁decide	-3649
wikipediap	-3650
sis	-3651
aracters	-3652
thispage	-3653
yond	-3654
▁#	-3655
ofwikipedia	-3656
hereand	-3657
rr	-3658
▁fine	-3659
▁government	-3660
kno	-3661
mediately	-3662
reliable	-3663
2009	-3664
ham	-3665
lying	-3666
▁according	-3667
abs	-3668
justs	-3669
▁trans	-3670
contribut	-3671
ID	-3672
itate	-3673
peatedly	-3674
usations	-3675
▁ME	-3676
andf	-3677
respect	-3678
ca	-3679
▁story	-3680
ingof	-3681
format	-3682
▁music	-3683
roversy	-3684
character	-3685
tify	-3686
ademic	-3687
tified	-3688
ids	-3689
rot	-3690
active	-3691
▁disagree	-3692
company	-3693
ric	-3694
conn	-3695
▁cited	-3696
▁recently	-3697
itwould	-3698
▁respect	-3699
apolog	-3700
generally	-3701
ael	-3702
tha	-3703
infact	-3704
IP	-3705
uns	-3706
country	-3707
▁actual	-3708
igu	-3709
oned	-3710
quick	-3711
▁context	-3712
34	-3713
Please	-3714
hey	-3715
views	-3716
inyour	-3717
together	-3718
▁inv	-3719
lectr	-3720
38	-3721
▁told	-3722
lected	-3723
looks	-3724
dick	-3725
removing	-3726
ifyouwould	-3727
often	-3728
▁Mr	-3729
wanted	-3730
▁views	-3731
▁background	-3732
atory	-3733
▁pers	-3734
posal	-3735
▁experiment	-3736
eno	-3737
isto	-3738
▁hom	-3739
▁close	-3740
school	-3741
thankyouforyour	-3742
remely	-3743
subjects	-3744
copyright	-3745
▁2008	-3746
dog	-3747
kindof	-3748
acceptable	-3749
▁themselves	-3750
isp	-3751
atisf	-3752
▁mass	-3753
israel	-3754
university	-3755
▁RE	-3756
bias	-3757
esand	-3758
youc	-3759
wehave	-3760
ofcourse	-3761
▁Cheers	-3762
FA	-3763
ators	-3764
force	-3765
ana	-3766
▁live	-3767
gar	-3768
haviour	-3769
attention	-3770
ipaddress	-3771
OCK	-3772
category	-3773
forexample	-3774
▁ill	-3775
anner	-3776
ignore	-3777
vertising	-3778
ky	-3779
usertalk	-3780
ingme	-3781
sl	-3782
▁generally	-3783
▁o	-3784
alm	-3785
alittle	-3786
▁company	-3787
▁transl	-3788
▁Since	-3789
ken	-3790
uggest	-3791
▁enjoy	-3792
pleased	-3793
▁She	-3794
▁category	-3795
198	-3796
▁Dr	-3797
▁Yes	-3798
inent	-3799
Project	-3800
▁British	-3801
suggest	-3802
key	-3803
aboutit	-3804
whod	-3805
church	-3806
necessary	-3807
Or	-3808
▁?	-3809
bat	-3810
▁IN	-3811
guys	-3812
edup	-3813
▁went	-3814
redi	-3815
thre	-3816
ewill	-3817
canyou	-3818
disput	-3819
basedon	-3820
isee	-3821
ontalk	-3822
▁Get	-3823
recogn	-3824
uropean	-3825
response	-3826
death	-3827
level	-3828
▁ones	-3829
associ	-3830
▁admins	-3831
oles	-3832
▁resol	-3833
fan	-3834
test	-3835
alink	-3836
▁allowed	-3837
thatwould	-3838
▁individual	-3839
▁SH	-3840
ength	-3841
banned	-3842
standard	-3843
▁attention	-3844
ifyouare	-3845
insteadof	-3846
fd	-3847
▁har	-3848
itles	-3849
thatthey	-3850
ofessional	-3851
▁ef	-3852
▁em	-3853
▁rest	-3854
▁upload	-3855
knowledge	-3856
36	-3857
▁God	-3858
ormal	-3859
civil	-3860
Ch	-3861
▁emp	-3862
coming	-3863
pig	-3864
ube	-3865
ously	-3866
▁obvious	-3867
err	-3868
commend	-3869
istance	-3870
▁complain	-3871
vere	-3872
anced	-3873
▁level	-3874
▁moved	-3875
websites	-3876
▁X	-3877
three	-3878
ta	-3879
alian	-3880
▁apolog	-3881
▁various	-3882
arth	-3883
▁result	-3884
osex	-3885
tool	-3886
pretty	-3887
▁alone	-3888
▁quick	-3889
▁den	-3890
ewould	-3891
]]	-3892
▁En	-3893
rain	-3894
▁aren	-3895
describ	-3896
▁Gu	-3897
youd	-3898
build	-3899
future	-3900
weare	-3901
aught	-3902
shere	-3903
▁Sorry	-3904
ofh	-3905
▁banned	-3906
ION	-3907
▁type	-3908
yourown	-3909
▁16	-3910
asto	-3911
omuch	-3912
▁particip	-3913
thered	-3914
▁bias	-3915
▁event	-3916
▁minor	-3917
themselves	-3918
wecan	-3919
established	-3920
46	-3921
udd	-3922
▁interesting	-3923
ithe	-3924
▁origin	-3925
ratherthan	-3926
issu	-3927
anies	-3928
afe	-3929
▁sites	-3930
vention	-3931
aand	-3932
▁criticism	-3933
asit	-3934
thesandbox	-3935
cer	-3936
▁",	-3937
▁loc	-3938
▁2004	-3939
feelfreeto	-3940
ambiguation	-3941
emay	-3942
viet	-3943
▁red	-3944
appens	-3945
proof	-3946
ulations	-3947
published	-3948
bit	-3949
seen	-3950
inh	-3951
ips	-3952
listof	-3953
▁contributing	-3954
crit	-3955
▁Col	-3956
▁actions	-3957
▁Let	-3958
alls	-3959
▁art	-3960
mor	-3961
▁hours	-3962
▁together	-3963
UN	-3964
las	-3965
vents	-3966
ivility	-3967
blog	-3968
ader	-3969
frain	-3970
criteria	-3971
▁longer	-3972
▁proposed	-3973
fuckyoufuckyou	-3974
▁meet	-3975
OS	-3976
ede	-3977
status	-3978
leading	-3979
username	-3980
ugust	-3981
looking	-3982
▁12	-3983
among	-3984
echno	-3985
usually	-3986
chang	-3987
▁inst	-3988
youto	-3989
▁ban	-3990
▁wait	-3991
attemp	-3992
asyoudid	-3993
▁previous	-3994
▁band	-3995
ofan	-3996
▁area	-3997
political	-3998
etermin	-3999
internet	-4000
1,	-4001
igr	-4002
comes	-4003
azi	-4004
city	-4005
ollowing	-4006
▁199	-4007
▁death	-4008
lan	-4009
▁MY	-4010
sing	-4011
ornot	-4012
▁happened	-4013
automatically	-4014
assment	-4015
▁sm	-4016
alest	-4017
oft	-4018
~~~~	-4019
family	-4020
general	-4021
▁anyway	-4022
itiz	-4023
aspec	-4024
fish	-4025
activ	-4026
empor	-4027
thiss	-4028
istinc	-4029
accepted	-4030
letter	-4031
osexual	-4032
▁automatically	-4033
▁Jan	-4034
ewish	-4035
estions	-4036
jer	-4037
itas	-4038
tification	-4039
stated	-4040
▁works	-4041
astr	-4042
support	-4043
thatare	-4044
itand	-4045
▁simple	-4046
uploaded	-4047
▁ve	-4048
▁14	-4049
RECT	-4050
hib	-4051
▁human	-4052
▁contact	-4053
isin	-4054
album	-4055
▁recogn	-4056
ganization	-4057
urt	-4058
whos	-4059
british	-4060
▁citations	-4061
ique	-4062
live	-4063
roat	-4064
▁equ	-4065
▁lim	-4066
▁Israel	-4067
▁"""::	-4068
▁himself	-4069
▁citation	-4070
iminal	-4071
EL	-4072
ypo	-4073
issed	-4074
acting	-4075
plicit	-4076
sw	-4077
changed	-4078
▁Ph	-4079
▁tw	-4080
pite	-4081
touse	-4082
▁worked	-4083
simply	-4084
reading	-4085
himoron	-4086
articlest	-4087
itto	-4088
▁jud	-4089
resol	-4090
avi	-4091
contr	-4092
ender	-4093
music	-4094
olice	-4095
butthe	-4096
idontknow	-4097
mr	-4098
houldbe	-4099
▁available	-4100
himoronhimoron	-4101
▁therefore	-4102
▁hey	-4103
youdont	-4104
▁thankyou	-4105
uit	-4106
past	-4107
helpful	-4108
recently	-4109
intothe	-4110
▁although	-4111
indic	-4112
ircum	-4113
▁comes	-4114
bot	-4115
fc	-4116
▁SUCK	-4117
checkout	-4118
:#	-4119
inany	-4120
letme	-4121
▁doubt	-4122
ocus	-4123
goes	-4124
town	-4125
gy	-4126
wasnot	-4127
idontthink	-4128
▁box	-4129
inese	-4130
▁wouldn	-4131
doc	-4132
quit	-4133
▁clar	-4134
▁unblock	-4135
▁nonsense	-4136
,""""	-4137
ological	-4138
▁sourced	-4139
ET	-4140
ili	-4141
▁Am	-4142
▁Of	-4143
32	-4144
ells	-4145
almost	-4146
▁creating	-4147
▁clean	-4148
▁document	-4149
▁supposed	-4150
▁accepted	-4151
thearticles	-4152
ationship	-4153
▁helpful	-4154
acted	-4155
everything	-4156
oint	-4157
unction	-4158
entially	-4159
▁Dec	-4160
▁attemp	-4161
,"	-4162
▁Oh	-4163
2012	-4164
itof	-4165
▁Af	-4166
unning	-4167
anymore	-4168
42	-4169
islam	-4170
▁goes	-4171
become	-4172
fficient	-4173
ferenc	-4174
▁bring	-4175
edfor	-4176
border	-4177
social	-4178
reasons	-4179
todowith	-4180
typ	-4181
uper	-4182
umerous	-4183
▁tildes	-4184
government	-4185
ya	-4186
lif	-4187
Image	-4188
▁period	-4189
sur	-4190
▁cite	-4191
happen	-4192
▁necessary	-4193
▁represent	-4194
ka	-4195
pas	-4196
various	-4197
theright	-4198
available	-4199
emin	-4200
▁mon	-4201
tildes	-4202
van	-4203
▁theory	-4204
▁family	-4205
itshould	-4206
mes	-4207
uel	-4208
▁Sc	-4209
tsof	-4210
▁These	-4211
ewe	-4212
omb	-4213
▁indeed	-4214
▁War	-4215
aging	-4216
alleg	-4217
undred	-4218
archive	-4219
▁indicate	-4220
comple	-4221
▁suc	-4222
lobal	-4223
aight	-4224
transl	-4225
itled	-4226
certainly	-4227
▁opinions	-4228
▁significant	-4229
reliablesources	-4230
78	-4231
ges	-4232
▁Ge	-4233
nothave	-4234
▁States	-4235
▁months	-4236
76	-4237
▁action	-4238
error	-4239
gof	-4240
pective	-4241
,000	-4242
fairuse	-4243
▁ST	-4244
arab	-4245
What	-4246
);	-4247
rolling	-4248
accordingto	-4249
atwikipedia	-4250
constructive	-4251
creen	-4252
▁foot	-4253
atur	-4254
atest	-4255
youve	-4256
posedto	-4257
righted	-4258
cle	-4259
▁First	-4260
▁attempt	-4261
enis	-4262
wood	-4263
members	-4264
▁German	-4265
talkcontribs	-4266
eries	-4267
histor	-4268
diff	-4269
ordin	-4270
enty	-4271
ofyou	-4272
▁million	-4273
▁statements	-4274
onc	-4275
ucking	-4276
istory	-4277
31	-4278
▁rid	-4279
▁conn	-4280
▁video	-4281
indicate	-4282
taken	-4283
imp	-4284
▁offic	-4285
afd	-4286
false	-4287
▁accurate	-4288
phys	-4289
road	-4290
▁Will	-4291
wonder	-4292
attempt	-4293
▁inform	-4294
▁decision	-4295
9.	-4296
▁Pe	-4297
period	-4298
.,	-4299
theory	-4300
thiswill	-4301
theother	-4302
raz	-4303
▁Ne	-4304
▁field	-4305
youthink	-4306
▁Perhaps	-4307
▁Br	-4308
▁With	-4309
fectly	-4310
iled	-4311
actice	-4312
▁biased	-4313
forts	-4314
interesting	-4315
google	-4316
gener	-4317
imm	-4318
japan	-4319
▁violation	-4320
ifi	-4321
▁Me	-4322
▁fore	-4323
▁sections	-4324
complain	-4325
""""?	-4326
arget	-4327
logical	-4328
freed	-4329
▁Help	-4330
▁Then	-4331
west	-4332
▁Even	-4333
haveto	-4334
xx	-4335
obs	-4336
▁Maybe	-4337
▁100	-4338
▁bitch	-4339
type	-4340
pointofview	-4341
strong	-4342
ilt	-4343
▁NPOV	-4344
million	-4345
▁el	-4346
orge	-4347
oesnot	-4348
▁format	-4349
▁incorrect	-4350
publish	-4351
▁standard	-4352
win	-4353
backgroundcolor	-4354
austr	-4355
regarding	-4356
arted	-4357
▁upon	-4358
▁among	-4359
template	-4360
▁Turk	-4361
▁situation	-4362
▁tagged	-4363
currently	-4364
oe	-4365
▁run	-4366
third	-4367
stream	-4368
infobox	-4369
picture	-4370
na	-4371
mist	-4372
▁serious	-4373
bb	-4374
VER	-4375
asource	-4376
VE	-4377
▁black	-4378
jack	-4379
lines	-4380
ternall	-4381
▁IT	-4382
tives	-4383
esc	-4384
whom	-4385
RS	-4386
ifies	-4387
AD	-4388
alone	-4389
Thanks	-4390
▁proof	-4391
agazine	-4392
▁living	-4393
wait	-4394
sexsex	-4395
example	-4396
itimate	-4397
problems	-4398
plit	-4399
appropri	-4400
▁Take	-4401
astard	-4402
tab	-4403
▁LI	-4404
▁third	-4405
▁debate	-4406
useof	-4407
thefollowing	-4408
estroy	-4409
seemsto	-4410
stitute	-4411
▁heard	-4412
respons	-4413
interestedin	-4414
▁Wik	-4415
saying	-4416
isation	-4417
heard	-4418
▁details	-4419
ises	-4420
ival	-4421
ichael	-4422
isl	-4423
allo	-4424
aud	-4425
die	-4426
iet	-4427
andb	-4428
rock	-4429
iggern	-4430
thereason	-4431
▁sockpuppet	-4432
▁hate	-4433
▁explaining	-4434
vey	-4435
AM	-4436
jim	-4437
club	-4438
asier	-4439
thename	-4440
inger	-4441
Wikipedia	-4442
usethesandbox	-4443
▁civil	-4444
▁figure	-4445
definitely	-4446
rog	-4447
edback	-4448
ership	-4449
mentioned	-4450
argu	-4451
arned	-4452
▁guys	-4453
abouth	-4454
▁Christian	-4455
▁otherwise	-4456
▁2010	-4457
indeed	-4458
behavior	-4459
▁shouldn	-4460
2011	-4461
remain	-4462
▁behavior	-4463
iggerniggern	-4464
rap	-4465
ros	-4466
ande	-4467
oesnt	-4468
half	-4469
cited	-4470
weshould	-4471
ofhis	-4472
todoso	-4473
:5	-4474
emit	-4475
prov	-4476
proposed	-4477
▁Did	-4478
▁beg	-4479
youwere	-4480
vandalize	-4481
If	-4482
ieve	-4483
spaper	-4484
▁party	-4485
onsider	-4486
thesource	-4487
▁multiple	-4488
apparently	-4489
aman	-4490
july	-4491
cannot	-4492
▁Apr	-4493
▁epis	-4494
inthat	-4495
▁ignor	-4496
dat	-4497
▁series	-4498
▁separate	-4499
▁air	-4500
works	-4501
ishould	-4502
obvious	-4503
german	-4504
prec	-4505
▁ARE	-4506
▁Hey	-4507
fourtildes	-4508
ries	-4509
youmight	-4510
gl	-4511
▁13	-4512
▁oh	-4513
ualof	-4514
▁cause	-4515
▁contr	-4516
aswellas	-4517
▁While	-4518
rs	-4519
▁city	-4520
design	-4521
tributors	-4522
umn	-4523
fered	-4524
toput	-4525
youwould	-4526
▁ur	-4527
▁gets	-4528
thank	-4529
char	-4530
▁moron	-4531
tother	-4532
inorder	-4533
▁histor	-4534
wikiproject	-4535
▁Sty	-4536
oul	-4537
ulting	-4538
athetic	-4539
▁!	-4540
▁hell	-4541
uspect	-4542
verify	-4543
ofl	-4544
ops	-4545
onic	-4546
gramm	-4547
losed	-4548
lollol	-4549
▁Japan	-4550
▁design	-4551
nonsense	-4552
▁rationale	-4553
▁couple	-4554
included	-4555
yri	-4556
decide	-4557
isaid	-4558
▁asking	-4559
▁schol	-4560
inas	-4561
wide	-4562
▁July	-4563
reet	-4564
anch	-4565
▁BL	-4566
▁usually	-4567
fromwikipedia	-4568
atural	-4569
ido	-4570
ondon	-4571
belong	-4572
clar	-4573
game	-4574
peat	-4575
ained	-4576
▁anal	-4577
▁difference	-4578
inm	-4579
▁wik	-4580
▁album	-4581
previous	-4582
urrently	-4583
hom	-4584
▁Pl	-4585
butif	-4586
lookat	-4587
ceed	-4588
perienced	-4589
sit	-4590
space	-4591
ifit	-4592
next	-4593
orts	-4594
asure	-4595
▁Greek	-4596
▁quality	-4597
incorrect	-4598
▁light	-4599
▁directly	-4600
▁data	-4601
admins	-4602
proved	-4603
themat	-4604
▁alleg	-4605
OP	-4606
▁Who	-4607
eneed	-4608
youand	-4609
pageand	-4610
▁access	-4611
▁conflict	-4612
fill	-4613
ibrary	-4614
core	-4615
assing	-4616
erstood	-4617
db	-4618
onor	-4619
august	-4620
articled	-4621
▁purpose	-4622
pigpig	-4623
▁sound	-4624
ansp	-4625
▁build	-4626
onthetalkpage	-4627
ium	-4628
▁poor	-4629
didyou	-4630
ewikipedi	-4631
▁2009	-4632
jewish	-4633
▁complete	-4634
▁August	-4635
thas	-4636
iny	-4637
npov	-4638
award	-4639
jewfat	-4640
riterion	-4641
itable	-4642
▁countries	-4643
aint	-4644
▁home	-4645
jewfatjewfat	-4646
ysis	-4647
idonot	-4648
▁fight	-4649
▁drop	-4650
arty	-4651
upon	-4652
cheers	-4653
verted	-4654
▁assume	-4655
▁redirecttalk	-4656
▁fan	-4657
polit	-4658
▁require	-4659
▁sk	-4660
wont	-4661
greek	-4662
piece	-4663
▁calling	-4664
▁REDI	-4665
▁Style	-4666
ultural	-4667
▁REDIRECT	-4668
ajority	-4669
spiracy	-4670
▁30	-4671
notic	-4672
▁legal	-4673
jection	-4674
former	-4675
produce	-4676
ofb	-4677
loser	-4678
atures	-4679
▁World	-4680
suc	-4681
reply	-4682
▁met	-4683
theword	-4684
pot	-4685
meet	-4686
butnot	-4687
▁meant	-4688
▁white	-4689
identif	-4690
7.	-4691
AP	-4692
▁direc	-4693
bert	-4694
ento	-4695
▁Have	-4696
▁return	-4697
▁messages	-4698
thatyouare	-4699
anded	-4700
inclusion	-4701
▁sec	-4702
ening	-4703
▁oper	-4704
report	-4705
esh	-4706
▁Mo	-4707
▁por	-4708
estop	-4709
youcould	-4710
christian	-4711
meaning	-4712
proving	-4713
tics	-4714
▁mar	-4715
ander	-4716
seven	-4717
thew	-4718
tial	-4719
▁push	-4720
▁inclusion	-4721
anic	-4722
uming	-4723
▁Austr	-4724
himself	-4725
▁prefer	-4726
▁existing	-4727
▁step	-4728
▁disput	-4729
izations	-4730
irown	-4731
▁rights	-4732
▁contribute	-4733
hist	-4734
tware	-4735
whats	-4736
aining	-4737
otherwise	-4738
thisisnot	-4739
▁uses	-4740
rd	-4741
mas	-4742
tags	-4743
IL	-4744
aily	-4745
tively	-4746
▁'''''	-4747
▁described	-4748
unitedstates	-4749
few	-4750
sockpuppet	-4751
▁cred	-4752
▁control	-4753
urb	-4754
atal	-4755
▁WIK	-4756
pointed	-4757
encyclopedi	-4758
pillars	-4759
▁terror	-4760
bullshit	-4761
▁external	-4762
agged	-4763
▁cock	-4764
▁produce	-4765
iguess	-4766
▁blocking	-4767
ecessarily	-4768
igures	-4769
apersonal	-4770
▁historical	-4771
ifyouwouldliketo	-4772
impl	-4773
forthat	-4774
▁UK	-4775
event	-4776
andits	-4777
arents	-4778
tle	-4779
special	-4780
adis	-4781
andwelcome	-4782
Organization	-4783
avy	-4784
ifthey	-4785
▁polit	-4786
▁online	-4787
subjec	-4788
rew	-4789
idents	-4790
▁prove	-4791
▁After	-4792
andin	-4793
mentof	-4794
▁activ	-4795
contributingto	-4796
olf	-4797
▁encyclop	-4798
▁ra	-4799
forum	-4800
▁contest	-4801
alia	-4802
spage	-4803
contest	-4804
asser	-4805
becom	-4806
cript	-4807
named	-4808
ume	-4809
acomm	-4810
ny	-4811
▁join	-4812
cil	-4813
**	-4814
Al	-4815
ington	-4816
freedom	-4817
alot	-4818
hehas	-4819
andother	-4820
business	-4821
remember	-4822
▁11	-4823
forme	-4824
bys	-4825
66	-4826
pp	-4827
team	-4828
▁indic	-4829
document	-4830
▁respons	-4831
▁gave	-4832
isthis	-4833
▁cases	-4834
wec	-4835
▁prec	-4836
▁religion	-4837
ousands	-4838
decision	-4839
terror	-4840
human	-4841
▁(~~~~	-4842
▁error	-4843
▁business	-4844
▁seriously	-4845
▁decided	-4846
▁Ger	-4847
utter	-4848
isab	-4849
▁face	-4850
mans	-4851
iberal	-4852
theway	-4853
▁Where	-4854
▁honest	-4855
▁changing	-4856
editsummary	-4857
▁Im	-4858
askme	-4859
▁Does	-4860
▁pillars	-4861
AA	-4862
irt	-4863
poses	-4864
ikes	-4865
themost	-4866
sch	-4867
whoare	-4868
ivision	-4869
agon	-4870
night	-4871
referenced	-4872
thesection	-4873
▁arb	-4874
▁AS	-4875
vinc	-4876
opied	-4877
urder	-4878
▁team	-4879
context	-4880
EST	-4881
pic	-4882
▁DO	-4883
▁aff	-4884
▁cur	-4885
indow	-4886
▁Coun	-4887
tc	-4888
hood	-4889
ahead	-4890
▁half	-4891
acl	-4892
▁23	-4893
hear	-4894
▁dick	-4895
ationand	-4896
undament	-4897
forb	-4898
vices	-4899
▁phys	-4900
▁piece	-4901
aur	-4902
erand	-4903
ience	-4904
▁bene	-4905
ilosop	-4906
ofthat	-4907
iff	-4908
spe	-4909
▁King	-4910
▁earlier	-4911
▁special	-4912
itwouldbe	-4913
▁personally	-4914
▁Ser	-4915
rules	-4916
▁Article	-4917
▁space	-4918
inwhich	-4919
came	-4920
push	-4921
FD	-4922
usy	-4923
▁ON	-4924
ara	-4925
enda	-4926
edited	-4927
cunt	-4928
ingthearticle	-4929
88	-4930
lor	-4931
osp	-4932
whath	-4933
haved	-4934
▁girl	-4935
istics	-4936
certain	-4937
contact	-4938
▁crit	-4939
gree	-4940
arguments	-4941
statements	-4942
nos	-4943
compl	-4944
prised	-4945
▁disruptive	-4946
ru	-4947
ius	-4948
elled	-4949
identity	-4950
bark	-4951
cast	-4952
dead	-4953
erves	-4954
▁takes	-4955
▁release	-4956
195	-4957
file	-4958
▁List	-4959
▁creation	-4960
itmay	-4961
▁mess	-4962
▁linked	-4963
ief	-4964
mal	-4965
wikim	-4966
particip	-4967
criticism	-4968
????	-4969
▁University	-4970
79	-4971
religion	-4972
▁India	-4973
▁liter	-4974
addedby	-4975
asty	-4976
istered	-4977
youwant	-4978
quot	-4979
enter	-4980
▁Islam	-4981
interpret	-4982
▁resto	-4983
shitshit	-4984
▁thinking	-4985
▁arguments	-4986
.15	-4987
andi	-4988
whois	-4989
ualofstyle	-4990
bul	-4991
theex	-4992
ston	-4993
ingly	-4994
properly	-4995
▁pictures	-4996
girl	-4997
▁Look	-4998
▁·	-4999
draw	-5000
thow	-5001
▁summ	-5002
ismore	-5003
▁Other	-5004
creation	-5005
▁primary	-5006
bene	-5007
needed	-5008
▁Could	-5009
▁towards	-5010
ivepillars	-5011
▁Wikipedian	-5012
historical	-5013
▁vote	-5014
disruptive	-5015
CE	-5016
oly	-5017
house	-5018
longer	-5019
mother	-5020
▁concerns	-5021
thefactthat	-5022
child	-5023
▁coll	-5024
intend	-5025
▁women	-5026
pleasestop	-5027
▁ca	-5028
ithought	-5029
TH	-5030
sd	-5031
▁blog	-5032
posing	-5033
journal	-5034
bag	-5035
▁21	-5036
reak	-5037
antis	-5038
▁Manual	-5039
provided	-5040
▁science	-5041
▁discussed	-5042
site	-5043
▁none	-5044
▁giving	-5045
▁numbers	-5046
epis	-5047
▁March	-5048
▁early	-5049
thelast	-5050
anyon	-5051
▁social	-5052
according	-5053
ontalkpages	-5054
originalresearch	-5055
zz	-5056
▁qual	-5057
commun	-5058
except	-5059
▁coming	-5060
accounts	-5061
RR	-5062
ittee	-5063
ission	-5064
understanding	-5065
▁-"	-5066
wrote	-5067
▁thus	-5068
▁member	-5069
hop	-5070
ensed	-5071
anking	-5072
whythe	-5073
▁argu	-5074
indian	-5075
fluence	-5076
yousuck	-5077
akealook	-5078
unsigned	-5079
▁readers	-5080
gh	-5081
atthis	-5082
▁child	-5083
▁outside	-5084
TW	-5085
exts	-5086
ift	-5087
olish	-5088
clusive	-5089
echnical	-5090
▁mistake	-5091
▁pleasedonot	-5092
ropinion	-5093
▁entirely	-5094
IGG	-5095
▁UN	-5096
ager	-5097
▁wants	-5098
directly	-5099
verything	-5100
▁sw	-5101
preh	-5102
▁ret	-5103
balls	-5104
giving	-5105
someon	-5106
toread	-5107
ruption	-5108
▁looked	-5109
64	-5110
arl	-5111
likeyou	-5112
▁majority	-5113
erc	-5114
york	-5115
▁identif	-5116
moreabout	-5117
notes	-5118
jected	-5119
uthors	-5120
▁hello	-5121
children	-5122
▁Afr	-5123
propag	-5124
ram	-5125
▁Ob	-5126
apar	-5127
enow	-5128
join	-5129
owers	-5130
formance	-5131
Wiki	-5132
▁ver	-5133
ading	-5134
thecurrent	-5135
pace	-5136
andas	-5137
▁plan	-5138
▁22	-5139
▁il	-5140
theyre	-5141
omy	-5142
▁Cr	-5143
second	-5144
▁groups	-5145
pleasesee	-5146
cuse	-5147
uchas	-5148
regards	-5149
▁Because	-5150
▁culture	-5151
dem	-5152
particularly	-5153
▁specifically	-5154
ategor	-5155
primary	-5156
php	-5157
orst	-5158
▁Feel	-5159
anning	-5160
▁merely	-5161
verified	-5162
wit	-5163
andy	-5164
remov	-5165
▁anon	-5166
WWWWWWWW	-5167
▁BE	-5168
ibly	-5169
isas	-5170
▁Nor	-5171
adian	-5172
annel	-5173
prefer	-5174
hel	-5175
hereare	-5176
▁particularly	-5177
▁Ab	-5178
poor	-5179
▁Ste	-5180
▁abuse	-5181
▁''''''	-5182
withyour	-5183
▁totally	-5184
2013	-5185
▁Har	-5186
putting	-5187
AY	-5188
▁;	-5189
▁imag	-5190
theone	-5191
sec	-5192
tid	-5193
appears	-5194
itseems	-5195
likethis	-5196
BS	-5197
IM	-5198
tak	-5199
none	-5200
ictionary	-5201
▁scientific	-5202
contribution	-5203
▁unsigned	-5204
CH	-5205
amb	-5206
eletion	-5207
▁modern	-5208
▁irrelevant	-5209
▁dead	-5210
forward	-5211
isthere	-5212
▁associ	-5213
▁friends	-5214
▁National	-5215
Hi	-5216
ework	-5217
inthem	-5218
ano	-5219
vote	-5220
behind	-5221
ctober	-5222
▁gener	-5223
▁across	-5224
everyone	-5225
rat	-5226
spac	-5227
▁From	-5228
protected	-5229
0000	-5230
▁hes	-5231
ivate	-5232
fuckfuck	-5233
editapage	-5234
▁internet	-5235
▁standards	-5236
june	-5237
iforn	-5238
andim	-5239
▁Intern	-5240
couldbe	-5241
▁popular	-5242
asi	-5243
▁ess	-5244
▁South	-5245
ovember	-5246
ensorship	-5247
inch	-5248
estim	-5249
illage	-5250
tothem	-5251
▁chance	-5252
py	-5253
rish	-5254
gives	-5255
ingyou	-5256
nthave	-5257
▁treat	-5258
intention	-5259
talkpages	-5260
break	-5261
08	-5262
aval	-5263
ilip	-5264
itup	-5265
control	-5266
withyou	-5267
▁propag	-5268
▁children	-5269
ofd	-5270
ends	-5271
▁June	-5272
▁match	-5273
uckyourself	-5274
St	-5275
mess	-5276
investig	-5277
▁putting	-5278
amore	-5279
▁2012	-5280
▁break	-5281
thatitis	-5282
▁ALL	-5283
inhis	-5284
inser	-5285
alleng	-5286
thiswas	-5287
zen	-5288
isaw	-5289
ussia	-5290
▁advice	-5291
▁reported	-5292
andthedate	-5293
▁organization	-5294
aq	-5295
entirely	-5296
tored	-5297
▁body	-5298
asshole	-5299
▁expect	-5300
▁Bl	-5301
posted	-5302
▁reader	-5303
▁absolutely	-5304
▁gives	-5305
▁experience	-5306
mus	-5307
aren	-5308
anger	-5309
iance	-5310
▁lost	-5311
assume	-5312
▁mother	-5313
▁More	-5314
▁Would	-5315
thesecond	-5316
iran	-5317
▁song	-5318
ampion	-5319
claims	-5320
▁Jewish	-5321
onsensus	-5322
▁acceptable	-5323
▁understanding	-5324
▁)"	-5325
▁1.	-5326
▁Int	-5327
thesis	-5328
▁named	-5329
▁table	-5330
▁events	-5331
▁Note	-5332
ography	-5333
thefuck	-5334
beremoved	-5335
rad	-5336
century	-5337
▁25	-5338
eman	-5339
fall	-5340
43	-5341
toit	-5342
likes	-5343
track	-5344
▁Google	-5345
▁Republic	-5346
Un	-5347
oing	-5348
ream	-5349
▁fag	-5350
lands	-5351
▁super	-5352
finally	-5353
aboutthat	-5354
indi	-5355
▁vol	-5356
andun	-5357
lists	-5358
▁fun	-5359
89	-5360
fine	-5361
tryto	-5362
▁Admin	-5363
theterm	-5364
familiar	-5365
absolutely	-5366
e	-5367
▁	-5368
t	-5369
a	-5370
o	-5371
i	-5372
n	-5373
s	-5374
r	-5375
h	-5376
l	-5377
d	-5378
u	-5379
c	-5380
m	-5381
y	-5382
p	-5383
g	-5384
f	-5385
w	-5386
b	-5387
k	-5388
"	-5389
v	-5390
.	-5391
,	-5392
I	-5393
T	-5394
'	-5395
1	-5396
0	-5397
x	-5398
A	-5399
j	-5400
2	-5401
S	-5402
W	-5403
C	-5404
P	-5405
E	-5406
-	-5407
q	-5408
O	-5409
:	-5410
N	-5411
H	-5412
R	-5413
)	-5414
M	-5415
z	-5416
(	-5417
B	-5418
D	-5419
9	-5420
!	-5421
3	-5422
5	-5423
?	-5424
F	-5425
4	-5426
L	-5427
U	-5428
8	-5429
Y	-5430
6	-5431
G	-5432
7	-5433
/	-5434
K	-5435
J	-5436
V	-5437
=	-5438
;	-5439
_	-5440
|	-5441
]	-5442
[	-5443
~	-5444
&	-5445
—	-5446
{	-5447
#	-5448
>	-5449
}	-5450
%	-5451
•	-5452
Q	-5453
*	-5454
Z	-5455
<	-5456
’	-5457
X	-5458
+	-5459
–	-5460
“	-5461
”	-5462
·	-5463
@	-5464
é	-5465
$	-5466
^	-5467
→	-5468
\	-5469
а	-5470
о	-5471
`	-5472
‘	-5473
́	-5474
е	-5475
и	-5476
á	-5477
ü	-5478
н	-5479
р	-5480
ö	-5481
ä	-5482
ا	-5483
í	-5484
т	-5485
α	-5486
в	-5487
ó	-5488
ı	-5489
с	-5490
ل	-5491
к	-5492
л	-5493
ç	-5494
ć	-5495
♥	-5496
д	-5497
←	-5498
š	-5499
ā	-5500
♦	-5501
►	-5502
ε	-5503
☎	-5504
τ	-5505
°	-5506
у	-5507
م	-5508
§	-5509
✉	-5510
»	-5511
♫	-5512
£	-5513
å	-5514
ø	-5515
č	-5516
ο	-5517
м	-5518
п	-5519
«	-5520
و	-5521
ي	-5522
♣	-5523
à	-5524
★	-5525
æ	-5526
ς	-5527
ن	-5528
©	-5529
λ	-5530
ر	-5531
è	-5532
ş	-5533
ι	-5534
ν	-5535
♪	-5536
♠	-5537
−	-5538
б	-5539
☺	-5540
г	-5541
ł	-5542
я	-5543
â	-5544
†	-5545
ñ	-5546
ب	-5547
η	-5548
ρ	-5549
≈	-5550
ã	-5551
ع	-5552
¡	-5553
ê	-5554
ō	-5555
ь	-5556
й	-5557
μ	-5558
з	-5559
х	-5560
ه	-5561
®	-5562
ω	-5563
ú	-5564
ë	-5565
ə	-5566
்	-5567
ž	-5568
∆	-5569
π	-5570
ت	-5571
∇	-5572
¢	-5573
ß	-5574
ū	-5575
σ	-5576
د	-5577
ţ	-5578
β	-5579
ś	-5580
В	-5581
ン	-5582
κ	-5583
×	-5584
С	-5585
ा	-5586
ы	-5587
̄	-5588
י	-5589
س	-5590
☼	-5591
्	-5592
。	-5593
र	-5594
ô	-5595
ğ	-5596
ί	-5597
ו	-5598
━	-5599
Ω	-5600
Α	-5601
Ε	-5602
Я	-5603
ة	-5604
¿	-5605
─	-5606
ј	-5607
ה	-5608
═	-5609
☯	-5610
✍	-5611
竜	-5612
¦	-5613
É	-5614
ɐ	-5615
ك	-5616
′	-5617
ī	-5618
ˈ	-5619
δ	-5620
ж	-5621
ч	-5622
ר	-5623
や	-5624
υ	-5625
М	-5626
€	-5627
ń	-5628
Δ	-5629
γ	-5630
❤	-5631
ï	-5632
Š	-5633
ά	-5634
ف	-5635
ق	-5636
ይ	-5637
Ø	-5638
い	-5639
±	-5640
і	-5641
ج	-5642
ż	-5643
ш	-5644
أ	-5645
ح	-5646
₪	-5647
☏	-5648
✎	-5649
☮	-5650
Μ	-5651
ת	-5652
ɪ	-5653
स	-5654
⇔	-5655
◕	-5656
𒁳	-5657
ð	-5658
מ	-5659
ि	-5660
⁄	-5661
Ö	-5662
⇒	-5663
≠	-5664
水	-5665
­	-5666
ę	-5667
א	-5668
ش	-5669
„	-5670
⋅	-5671
ц	-5672
î	-5673
ம	-5674
✄	-5675
の	-5676
國	-5677
話	-5678
Æ	-5679
ý	-5680
̈	-5681
ל	-5682
म	-5683
ー	-5684
К	-5685
П	-5686
―	-5687
雲	-5688
ą	-5689
Κ	-5690
А	-5691
И	-5692
न	-5693
☆	-5694
Ç	-5695
ă	-5696
ό	-5697
ی	-5698
க	-5699
∞	-5700
χ	-5701
Д	-5702
ש	-5703
☠	-5704
・	-5705
見	-5706
İ	-5707
Σ	-5708
क	-5709
☥	-5710
学	-5711
連	-5712
龙	-5713
φ	-5714
ं	-5715
त	-5716
े	-5717
┃	-5718
¤	-5719
Č	-5720
О	-5721
ю	-5722
ב	-5723
✔	-5724
絡	-5725
Á	-5726
Å	-5727
õ	-5728
ŷ	-5729
ё	-5730
ע	-5731
،	-5732
ز	-5733
ி	-5734
ு	-5735
‍	-5736
惑	-5737
聖	-5738
迷	-5739
ě	-5740
Н	-5741
ص	-5742
າ	-5743
╟	-5744
╢	-5745
ģ	-5746
ő	-5747
נ	-5748
خ	-5749
த	-5750
ት	-5751
ው	-5752
ᛏ	-5753
⟲	-5754
リ	-5755
œ	-5756
ɛ	-5757
Л	-5758
द	-5759
ी	-5760
☻	-5761
✽	-5762
ラ	-5763
中	-5764
百	-5765
Ś	-5766
ג	-5767
ط	-5768
ह	-5769
ṗ	-5770
ṛ	-5771
ṣ	-5772
⊕	-5773
☘	-5774
➨	-5775
て	-5776
と	-5777
人	-5778
️	-5779
Œ	-5780
ŵ	-5781
ˌ	-5782
̃	-5783
Ο	-5784
Ψ	-5785
Р	-5786
щ	-5787
ṃ	-5788
‿	-5789
う	-5790
し	-5791
た	-5792
会	-5793
琉	-5794
🔞	-5795
	-5796
	-5797
¶	-5798
ɹ	-5799
ʌ	-5800
έ	-5801
θ	-5802
Т	-5803
ल	-5804
व	-5805
ष	-5806
ர	-5807
♀	-5808
さ	-5809
Ó	-5810
đ	-5811
ʍ	-5812
ʕ	-5813
ː	-5814
Λ	-5815
ξ	-5816
Б	-5817
ї	-5818
ח	-5819
إ	-5820
ட	-5821
வ	-5822
ṇ	-5823
⁂	-5824
か	-5825
な	-5826
ん	-5827
カ	-5828
¬	-5829
ò	-5830
ė	-5831
ˉ	-5832
Ρ	-5833
Τ	-5834
ζ	-5835
Ч	-5836
ъ	-5837
ד	-5838
ם	-5839
ذ	-5840
غ	-5841
ற	-5842
⁠	-5843
≤	-5844
ス	-5845
ル	-5846
你	-5847
的	-5848
🌈	-5849
😉	-5850
😜	-5851
Đ	-5852
ē	-5853
Ş	-5854
Θ	-5855
Π	-5856
Г	-5857
↔	-5858
∴	-5859
「	-5860
」	-5861
フ	-5862
😂	-5863
ř	-5864
ɑ	-5865
̧	-5866
͡	-5867
Γ	-5868
Υ	-5869
ή	-5870
Е	-5871
ث	-5872
ى	-5873
া	-5874
ா	-5875
₭	-5876
☭	-5877
✈	-5878
ⱷ	-5879
で	-5880
下	-5881
大	-5882
山	-5883
投	-5884
文	-5885
科	-5886
稿	-5887
ì	-5888
ù	-5889
ɔ	-5890
ɯ	-5891
ύ	-5892
Х	-5893
э	-5894
ז	-5895
כ	-5896
দ	-5897
└	-5898
●	-5899
♬	-5900
✆	-5901
❝	-5902
❞	-5903
が	-5904
ま	-5905
討	-5906
論	-5907
	-5908
÷	-5909
û	-5910
Ħ	-5911
ʇ	-5912
Β	-5913
Ν	-5914
Φ	-5915
У	-5916
Ф	-5917
ф	-5918
अ	-5919
ु	-5920
ப	-5921
ல	-5922
ນ	-5923
∫	-5924
┐	-5925
♔	-5926
⚇	-5927
き	-5928
ポ	-5929
モ	-5930
レ	-5931
年	-5932
本	-5933
þ	-5934
Ł	-5935
ƒ	-5936
ɣ	-5937
ʊ	-5938
ʼ	-5939
Ι	-5940
Ξ	-5941
ђ	-5942
ट	-5943
ॐ	-5944
ய	-5945
ᴥ	-5946
ἰ	-5947
⊗	-5948
╦	-5949
✰	-5950
こ	-5951
せ	-5952
よ	-5953
ガ	-5954
ケ	-5955
ツ	-5956
ト	-5957
先	-5958
🍁	-5959
Ā	-5960
ħ	-5961
ŋ	-5962
ʻ	-5963
ώ	-5964
ְ	-5965
ִ	-5966
ק	-5967
ग	-5968
ध	-5969
ழ	-5970
ລ	-5971
ღ	-5972
ḥ	-5973
‡	-5974
›	-5975
█	-5976
、	-5977
み	-5978
り	-5979
ウ	-5980
グ	-5981
基	-5982
王	-5983
球	-5984
維	-5985
Ã	-5986
Ž	-5987
ɰ	-5988
ʃ	-5989
ʎ	-5990
ʞ	-5991
є	-5992
ւ	-5993
ּ	-5994
ء	-5995
۞	-5996
प	-5997
श	-5998
ो	-5999
ব	-6000
ি	-6001
ன	-6002
ள	-6003
ை	-6004
ະ	-6005
‪	-6006
↑	-6007
∈	-6008
▪	-6009
◦	-6010
✓	-6011
あ	-6012
く	-6013
す	-6014
っ	-6015
に	-6016
ら	-6017
ド	-6018
ロ	-6019
一	-6020
們	-6021
松	-6022
版	-6023
生	-6024
Ú	-6025
Ü	-6026
Þ	-6027
̯	-6028
Э	-6029
ո	-6030
ס	-6031
ض	-6032
ظ	-6033
फ	-6034
২	-6035
ਖ	-6036
ਸ	-6037
ੁ	-6038
ந	-6039
ே	-6040
ສ	-6041
‧	-6042
╩	-6043
☸	-6044
《	-6045
》	-6046
お	-6047
だ	-6048
は	-6049
る	-6050
ジ	-6051
タ	-6052
メ	-6053
内	-6054
在	-6055
是	-6056
用	-6057
英	-6058
記	-6059
谢	-6060
部	-6061
録	-6062
龍	-6063
	-6064
💧	-6065
🥀	-6066
	-6067
Ŧ	-6068
ŭ	-6069
Ż	-6070
ψ	-6071
Ђ	-6072
ќ	-6073
҅	-6074
ա	-6075
צ	-6076
۝	-6077
य	-6078
़	-6079
ປ	-6080
ພ	-6081
ວ	-6082
ა	-6083
ṭ	-6084
ẓ	-6085
‖	-6086
‹	-6087
₣	-6088
≼	-6089
≽	-6090
☛	-6091
♩	-6092
け	-6093
つ	-6094
を	-6095
ク	-6096
ッ	-6097
テ	-6098
ホ	-6099
マ	-6100
原	-6101
天	-6102
字	-6103
日	-6104
海	-6105
済	-6106
達	-6107
馬	-6108
군	-6109
🌕	-6110
🍌	-6111
🏽	-6112
ň	-6113
Ō	-6114
ǀ	-6115
ɘ	-6116
ɡ	-6117
ɢ	-6118
̓	-6119
З	-6120
Ц	-6121
թ	-6122
ն	-6123
آ	-6124
ئ	-6125
ِ	-6126
߷	-6127
झ	-6128
স	-6129
எ	-6130
ನ	-6131
ු	-6132
ກ	-6133
ມ	-6134
ັ	-6135
ົ	-6136
ი	-6137
ប	-6138
ḷ	-6139
ṁ	-6140
ị	-6141
ự	-6142
ἐ	-6143
‐	-6144
‬	-6145
↕	-6146
∅	-6147
√	-6148
╫	-6149
■	-6150
⚔	-6151
❗	-6152
ィ	-6153
チ	-6154
三	-6155
上	-6156
不	-6157
八	-6158
出	-6159
好	-6160
民	-6161
涛	-6162
然	-6163
翻	-6164
華	-6165
謝	-6166
郡	-6167
頭	-6168
🔴	-6169
Î	-6170
Ć	-6171
ư	-6172
ǎ	-6173
ɟ	-6174
ɦ	-6175
ɻ	-6176
ɾ	-6177
ʘ	-6178
ʝ	-6179
ʨ	-6180
Ш	-6181
Щ	-6182
ր	-6183
ַ	-6184
ָ	-6185
ׁ	-6186
ן	-6187
פ	-6188
ّ	-6189
ک	-6190
ܝ	-6191
ज	-6192
ड	-6193
ण	-6194
भ	-6195
ক	-6196
ল	-6197
ু	-6198
৳	-6199
ண	-6200
ெ	-6201
ಾ	-6202
ທ	-6203
່	-6204
Ḍ	-6205
ḍ	-6206
ễ	-6207
ụ	-6208
ữ	-6209
✐	-6210
✗	-6211
〈	-6212
え	-6213
ち	-6214
ど	-6215
ひ	-6216
ょ	-6217
ア	-6218
イ	-6219
キ	-6220
シ	-6221
世	-6222
主	-6223
京	-6224
以	-6225
使	-6226
南	-6227
參	-6228
后	-6229
和	-6230
国	-6231
地	-6232
太	-6233
學	-6234
家	-6235
対	-6236
小	-6237
島	-6238
度	-6239
東	-6240
武	-6241
漢	-6242
熱	-6243
真	-6244
自	-6245
蛋	-6246
雞	-6247
	-6248
💋	-6249
💜	-6250
😒	-6251
¥	-6252
Ä	-6253
Õ	-6254
Ċ	-6255
ċ	-6256
ĩ	-6257
į	-6258
ņ	-6259
Ţ	-6260
ź	-6261
ǝ	-6262
ɥ	-6263
ɨ	-6264
ɳ	-6265
ʔ	-6266
̪	-6267
ү	-6268
ֶ	-6269
ט	-6270
ً	-6271
پ	-6272
ڈ	-6273
ै	-6274
ন	-6275
র	-6276
০	-6277
১	-6278
அ	-6279
ொ	-6280
ು	-6281
ත	-6282
ก	-6283
ງ	-6284
ຫ	-6285
ິ	-6286
ູ	-6287
ແ	-6288
თ	-6289
რ	-6290
ფ	-6291
ᴀ	-6292
ṫ	-6293
ạ	-6294
ố	-6295
ứ	-6296
ἀ	-6297
ὼ	-6298
‽	-6299
₵	-6300
↓	-6301
│	-6302
┌	-6303
┘	-6304
├	-6305
▎	-6306
◄	-6307
☑	-6308
ご	-6309
ば	-6310
も	-6311
れ	-6312
サ	-6313
デ	-6314
バ	-6315
ブ	-6316
ム	-6317
也	-6318
代	-6319
刀	-6320
制	-6321
北	-6322
千	-6323
嗎	-6324
土	-6325
女	-6326
定	-6327
平	-6328
意	-6329
所	-6330
敏	-6331
新	-6332
智	-6333
書	-6334
服	-6335
未	-6336
歡	-6337
田	-6338
編	-6339
西	-6340
語	-6341
說	-6342
輯	-6343
迎	-6344
郎	-6345
郭	-6346
青	-6347
飞	-6348
역	-6349
	-6350
Â	-6351
È	-6352
ÿ	-6353
ĕ	-6354
Ė	-6355
Ĝ	-6356
ĥ	-6357
ŏ	-6358
ů	-6359
ű	-6360
Ə	-6361
Ǔ	-6362
ǔ	-6363
ǖ	-6364
ǣ	-6365
ǧ	-6366
ɕ	-6367
ɖ	-6368
ɜ	-6369
ɱ	-6370
ʀ	-6371
ʈ	-6372
ʉ	-6373
ʑ	-6374
ʒ	-6375
ʙ	-6376
ʟ	-6377
ˀ	-6378
̆	-6379
̩	-6380
͉	-6381
Ζ	-6382
Η	-6383
Ѓ	-6384
І	-6385
Ќ	-6386
Й	-6387
Ь	-6388
љ	-6389
҈	-6390
Ӣ	-6391
գ	-6392
մ	-6393
յ	-6394
ץ	-6395
ٱ	-6396
ہ	-6397
۩	-6398
ۻ	-6399
ܐ	-6400
ܘ	-6401
ܣ	-6402
ܪ	-6403
ݗ	-6404
ݣ	-6405
इ	-6406
ओ	-6407
घ	-6408
०	-6409
অ	-6410
ো	-6411
અ	-6412
દ	-6413
ન	-6414
વ	-6415
ા	-6416
ુ	-6417
ஆ	-6418
ச	-6419
అ	-6420
ద	-6421
న	-6422
వ	-6423
ా	-6424
ు	-6425
ಅ	-6426
ಕ	-6427
ದ	-6428
ವ	-6429
ോ	-6430
ป	-6431
ร	-6432
ล	-6433
า	-6434
แ	-6435
๛	-6436
ຄ	-6437
ຊ	-6438
ຕ	-6439
გ	-6440
ლ	-6441
მ	-6442
ნ	-6443
ᄇ	-6444
ក	-6445
រ	-6446
ែ	-6447
្	-6448
ế	-6449
ệ	-6450
ọ	-6451
ộ	-6452
ὶ	-6453
ὸ	-6454
ῖ	-6455
ῶ	-6456
₩	-6457
₮	-6458
₯	-6459
₰	-6460
℥	-6461
⇝	-6462
∀	-6463
∪	-6464
≥	-6465
⊂	-6466
▶	-6467
☀	-6468
☄	-6469
☞	-6470
☣	-6471
☿	-6472
【	-6473
】	-6474
げ	-6475
じ	-6476
そ	-6477
ね	-6478
め	-6479
ろ	-6480
ァ	-6481
コ	-6482
セ	-6483
ニ	-6484
ノ	-6485
ビ	-6486
プ	-6487
ペ	-6488
ョ	-6489
ヴ	-6490
么	-6491
介	-6492
但	-6493
來	-6494
便	-6495
偏	-6496
働	-6497
內	-6498
公	-6499
初	-6500
前	-6501
劉	-6502
十	-6503
句	-6504
可	-6505
号	-6506
合	-6507
吕	-6508
外	-6509
子	-6510
孫	-6511
安	-6512
川	-6513
布	-6514
张	-6515
很	-6516
您	-6517
我	-6518
断	-6519
於	-6520
時	-6521
月	-6522
校	-6523
桜	-6524
次	-6525
汉	-6526
泥	-6527
注	-6528
浦	-6529
灣	-6530
為	-6531
熊	-6532
独	-6533
知	-6534
磨	-6535
秘	-6536
立	-6537
美	-6538
聯	-6539
訳	-6540
译	-6541
豆	-6542
選	-6543
都	-6544
金	-6545
隨	-6546
雪	-6547
需	-6548
高	-6549
눈	-6550
도	-6551
번	-6552
첫	-6553
	-6554
	-6555
	-6556
🍎	-6557
🎄	-6558
🏼	-6559
💙	-6560
🗽	-6561
🚘	-6562
🛀	-6563
🤷	-6564
Ì	-6565
Ð	-6566
Ñ	-6567
Ò	-6568
ĝ	-6569
Ĥ	-6570
Ī	-6571
Ĵ	-6572
Ķ	-6573
ľ	-6574
Ř	-6575
Ŝ	-6576
ŝ	-6577
Ť	-6578
ť	-6579
Ũ	-6580
ǒ	-6581
ȳ	-6582
ɤ	-6583
ɭ	-6584
ɲ	-6585
ʁ	-6586
ʿ	-6587
ˑ	-6588
̂	-6589
̉	-6590
̞	-6591
̮	-6592
̴	-6593
͑	-6594
͚	-6595
Ά	-6596
Έ	-6597
Ύ	-6598
Χ	-6599
Ϛ	-6600
Ϟ	-6601
Ͼ	-6602
Ѕ	-6603
Ј	-6604
Ћ	-6605
Џ	-6606
Ж	-6607
Ы	-6608
Ю	-6609
ѕ	-6610
ћ	-6611
џ	-6612
Қ	-6613
ҝ	-6614
Ө	-6615
ө	-6616
ך	-6617
״	-6618
َ	-6619
ْ	-6620
ڜ	-6621
ڬ	-6622
ڰ	-6623
۸	-6624
ݓ	-6625
ँ	-6626
उ	-6627
ऋ	-6628
ख	-6629
च	-6630
ठ	-6631
थ	-6632
ब	-6633
ू	-6634
ृ	-6635
ॆ	-6636
१	-6637
२	-6638
३	-6639
४	-6640
५	-6641
६	-6642
७	-6643
८	-6644
९	-6645
ং	-6646
ভ	-6647
ম	-6648
্	-6649
਼	-6650
ਾ	-6651
੭	-6652
୯	-6653
இ	-6654
ீ	-6655
ோ	-6656
ಠ	-6657
ತ	-6658
ಮ	-6659
ಿ	-6660
್	-6661
ം	-6662
മ	-6663
സ	-6664
്	-6665
ක	-6666
ඳ	-6667
ර	-6668
ව	-6669
්	-6670
ย	-6671
฿	-6672
ດ	-6673
ອ	-6674
ຸ	-6675
༆	-6676
ე	-6677
ᴍ	-6678
ᵮ	-6679
ḟ	-6680
ṅ	-6681
Ṝ	-6682
Ṣ	-6683
ṯ	-6684
ả	-6685
ầ	-6686
ẫ	-6687
ậ	-6688
ẹ	-6689
ẽ	-6690
ờ	-6691
ừ	-6692
ử	-6693
ἡ	-6694
ὄ	-6695
ὰ	-6696
ῆ	-6697
‒	-6698
⁞	-6699
₡	-6700
₦	-6701
₳	-6702
₴	-6703
Ⅎ	-6704
⇄	-6705
∂	-6706
∑	-6707
∙	-6708
≡	-6709
⊙	-6710
⊝	-6711
⌊	-6712
║	-6713
▫	-6714
◀	-6715
○	-6716
◔	-6717
☜	-6718
☝	-6719
☢	-6720
☽	-6721
☾	-6722
♂	-6723
♚	-6724
♝	-6725
♨	-6726
✌	-6727
✞	-6728
✤	-6729
✭	-6730
❉	-6731
❖	-6732
❦	-6733
➔	-6734
➤	-6735
➪	-6736
⠀	-6737
⨹	-6738
⫷	-6739
⫸	-6740
ⲧ	-6741
〉	-6742
び	-6743
ふ	-6744
わ	-6745
ェ	-6746
ソ	-6747
ハ	-6748
ヘ	-6749
ャ	-6750
ュ	-6751
ワ	-6752
並	-6753
个	-6754
事	-6755
亞	-6756
什	-6757
付	-6758
仮	-6759
件	-6760
位	-6761
佩	-6762
傳	-6763
像	-6764
共	-6765
写	-6766
到	-6767
加	-6768
卋	-6769
卐	-6770
卷	-6771
取	-6772
古	-6773
只	-6774
台	-6775
史	-6776
名	-6777
君	-6778
吳	-6779
器	-6780
四	-6781
因	-6782
址	-6783
坊	-6784
執	-6785
声	-6786
壹	-6787
変	-6788
如	-6789
姓	-6790
对	-6791
專	-6792
市	-6793
帝	-6794
廣	-6795
式	-6796
後	-6797
御	-6798
忍	-6799
志	-6800
思	-6801
感	-6802
憲	-6803
成	-6804
或	-6805
戸	-6806
拉	-6807
指	-6808
按	-6809
排	-6810
控	-6811
提	-6812
援	-6813
政	-6814
旭	-6815
映	-6816
显	-6817
有	-6818
望	-6819
朱	-6820
村	-6821
来	-6822
柱	-6823
格	-6824
梁	-6825
楊	-6826
步	-6827
段	-6828
永	-6829
求	-6830
江	-6831
決	-6832
油	-6833
法	-6834
湖	-6835
準	-6836
濤	-6837
火	-6838
点	-6839
焉	-6840
獨	-6841
現	-6842
町	-6843
界	-6844
疋	-6845
白	-6846
盒	-6847
目	-6848
省	-6849
石	-6850
砂	-6851
示	-6852
祖	-6853
福	-6854
穣	-6855
笑	-6856
筆	-6857
粿	-6858
紫	-6859
組	-6860
義	-6861
而	-6862
航	-6863
良	-6864
若	-6865
蠻	-6866
術	-6867
表	-6868
袁	-6869
被	-6870
要	-6871
訪	-6872
謚	-6873
貢	-6874
軍	-6875
载	-6876
这	-6877
這	-6878
通	-6879
遯	-6880
里	-6881
野	-6882
閩	-6883
雖	-6884
靜	-6885
鳴	-6886
麗	-6887
강	-6888
고	-6889
기	-6890
길	-6891
날	-6892
서	-6893
승	-6894
잡	-6895
	-6896
	-6897
	-6898
	-6899
	-6900
	-6901
～	-6902
𐌰	-6903
𐌹	-6904
🍀	-6905
🎀	-6906
🏻	-6907
👇	-6908
👙	-6909
💦	-6910
💬	-6911
📞	-6912
📧	-6913
😀	-6914
😄	-6915
😅	-6916
😊	-6917
	-6918
	-6919
	-6920
À	-6921
Ê	-6922
Ë	-6923
Í	-6924
Ï	-6925
Ô	-6926
Ù	-6927
Û	-6928
Ý	-6929
Ă	-6930
Ą	-6931
Ĉ	-6932
ĉ	-6933
Ď	-6934
ď	-6935
Ē	-6936
Ĕ	-6937
Ę	-6938
Ě	-6939
Ğ	-6940
Ġ	-6941
ġ	-6942
Ģ	-6943
Ĩ	-6944
Ĭ	-6945
ĭ	-6946
Į	-6947
ĵ	-6948
ķ	-6949
Ĺ	-6950
ĺ	-6951
Ļ	-6952
ļ	-6953
Ľ	-6954
Ń	-6955
Ņ	-6956
Ň	-6957
Ŏ	-6958
Ő	-6959
Ŕ	-6960
ŕ	-6961
Ŗ	-6962
ŗ	-6963
ŧ	-6964
ũ	-6965
Ū	-6966
Ŭ	-6967
Ů	-6968
Ű	-6969
Ų	-6970
ų	-6971
Ŵ	-6972
Ŷ	-6973
Ÿ	-6974
Ź	-6975
ơ	-6976
Ƭ	-6977
ǁ	-6978
ǂ	-6979
ǃ	-6980
Ǎ	-6981
Ǐ	-6982
ǐ	-6983
Ǒ	-6984
ǘ	-6985
ǚ	-6986
ǜ	-6987
Ǣ	-6988
Ǫ	-6989
ǫ	-6990
ǰ	-6991
ǽ	-6992
ȋ	-6993
ȗ	-6994
ș	-6995
ț	-6996
Ȳ	-6997
ɒ	-6998
ɓ	-6999
ɗ	-7000
ɚ	-7001
ɝ	-7002
ɞ	-7003
ɠ	-7004
ɧ	-7005
ɩ	-7006
ɫ	-7007
ɬ	-7008
ɮ	-7009
ɴ	-7010
ɵ	-7011
ɶ	-7012
ɸ	-7013
ɺ	-7014
ɽ	-7015
ɿ	-7016
ʂ	-7017
ʄ	-7018
ʋ	-7019
ʏ	-7020
ʐ	-7021
ʛ	-7022
ʜ	-7023
ʡ	-7024
ʢ	-7025
ʧ	-7026
ʾ	-7027
ˁ	-7028
˺	-7029
̎	-7030
̗	-7031
̜	-7032
̠	-7033
̥	-7034
̫	-7035
̭	-7036
̰	-7037
̲	-7038
̹	-7039
̺	-7040
̼	-7041
̿	-7042
͇	-7043
͍	-7044
͓	-7045
͖	-7046
͙	-7047
ͤ	-7048
ͧ	-7049
ͨ	-7050
ͩ	-7051
ͮ	-7052
Ͱ	-7053
Ͳ	-7054
Ή	-7055
Ί	-7056
Ό	-7057
Ώ	-7058
Ϝ	-7059
Ϸ	-7060
Ϻ	-7061
Ё	-7062
Є	-7063
Ї	-7064
Љ	-7065
Њ	-7066
Ў	-7067
Ъ	-7068
ѓ	-7069
њ	-7070
ў	-7071
ѧ	-7072
҉	-7073
Ґ	-7074
ґ	-7075
қ	-7076
Ӝ	-7077
ӧ	-7078
Ճ	-7079
Շ	-7080
Ո	-7081
ի	-7082
շ	-7083
տ	-7084
֑	-7085
ֲ	-7086
ֵ	-7087
ֻ	-7088
׀	-7089
ؤ	-7090
ُ	-7091
ٔ	-7092
ٰ	-7093
چ	-7094
گ	-7095
ڵ	-7096
۬	-7097
۲	-7098
۵	-7099
۶	-7100
۾	-7101
ݜ	-7102
ݟ	-7103
ݡ	-7104
ݭ	-7105
आ	-7106
औ	-7107
ॉ	-7108
ই	-7109
ও	-7110
খ	-7111
ছ	-7112
জ	-7113
ট	-7114
ড	-7115
ত	-7116
য	-7117
হ	-7118
়	-7119
ে	-7120
ৌ	-7121
ਜ	-7122
ਨ	-7123
ਫ	-7124
ਮ	-7125
ਰ	-7126
உ	-7127
ஒ	-7128
ங	-7129
ஜ	-7130
௹	-7131
ಗ	-7132
ಜ	-7133
ಡ	-7134
ಳ	-7135
ಸ	-7136
ೇ	-7137
ೋ	-7138
ക	-7139
ട	-7140
ദ	-7141
ര	-7142
വ	-7143
ാ	-7144
െ	-7145
ค	-7146
ต	-7147
ม	-7148
ว	-7149
อ	-7150
ุ	-7151
่	-7152
ຈ	-7153
ຣ	-7154
ຮ	-7155
ີ	-7156
ຼ	-7157
ໂ	-7158
ໄ	-7159
࿓	-7160
ვ	-7161
ო	-7162
პ	-7163
ს	-7164
ხ	-7165
ჷ	-7166
ᄃ	-7167
ᄉ	-7168
ᚹ	-7169
ᛇ	-7170
ᛟ	-7171
៛	-7172
᧾	-7173
ᴄ	-7174
ᶏ	-7175
Ḡ	-7176
Ḥ	-7177
Ḷ	-7178
Ḹ	-7179
ḹ	-7180
ḻ	-7181
Ṃ	-7182
Ṇ	-7183
ṙ	-7184
Ṛ	-7185
ṝ	-7186
ṧ	-7187
Ṭ	-7188
ấ	-7189
ắ	-7190
ằ	-7191
ặ	-7192
Ẽ	-7193
ể	-7194
ỉ	-7195
ỏ	-7196
ợ	-7197
Ỹ	-7198
ỹ	-7199
ἑ	-7200
ἔ	-7201
Ἐ	-7202
ἠ	-7203
ἱ	-7204
ἴ	-7205
ὀ	-7206
ὂ	-7207
ὅ	-7208
Ὀ	-7209
ὧ	-7210
ὲ	-7211
ὺ	-7212
ᾳ	-7213
ᾶ	-7214
ῃ	-7215
ῦ	-7216
ῷ	-7217
ῼ	-7218
‫	-7219
⁓	-7220
₠	-7221
₢	-7222
₤	-7223
₥	-7224
₧	-7225
₫	-7226
ↄ	-7227
↗	-7228
↨	-7229
∗	-7230
∧	-7231
⊥	-7232
┏	-7233
┓	-7234
┗	-7235
┛	-7236
╔	-7237
╗	-7238
╚	-7239
╝	-7240
▲	-7241
△	-7242
▾	-7243
◁	-7244
◅	-7245
◥	-7246
◯	-7247
☃	-7248
☇	-7249
☓	-7250
☤	-7251
☹	-7252
♑	-7253
✋	-7254
✒	-7255
✘	-7256
✧	-7257
✫	-7258
✿	-7259
➜	-7260
➥	-7261
⟨	-7262
⟩	-7263
⭐	-7264
Ᵽ	-7265
ⲟ	-7266
ⲩ	-7267
ⲱ	-7268
『	-7269
』	-7270
ぎ	-7271
ざ	-7272
ず	-7273
ぜ	-7274
ぞ	-7275
ぬ	-7276
へ	-7277
べ	-7278
ほ	-7279
ゃ	-7280
ゅ	-7281
゚	-7282
エ	-7283
ォ	-7284
オ	-7285
ギ	-7286
ゴ	-7287
ザ	-7288
ナ	-7289
ヌ	-7290
パ	-7291
ヒ	-7292
ピ	-7293
ベ	-7294
ボ	-7295
ヮ	-7296
ヽ	-7297
ㄉ	-7298
ㄏ	-7299
ㄤ	-7300
ㄧ	-7301
ㄨ	-7302
七	-7303
万	-7304
丈	-7305
与	-7306
东	-7307
乐	-7308
乙	-7309
九	-7310
书	-7311
了	-7312
二	-7313
井	-7314
些	-7315
今	-7316
他	-7317
仙	-7318
令	-7319
伝	-7320
佐	-7321
体	-7322
何	-7323
例	-7324
係	-7325
保	-7326
信	-7327
倒	-7328
做	-7329
健	-7330
储	-7331
僑	-7332
儀	-7333
兵	-7334
典	-7335
兼	-7336
冒	-7337
准	-7338
减	-7339
击	-7340
列	-7341
则	-7342
別	-7343
利	-7344
副	-7345
劇	-7346
助	-7347
労	-7348
動	-7349
務	-7350
勞	-7351
包	-7352
区	-7353
占	-7354
即	-7355
卻	-7356
历	-7357
参	-7358
反	-7359
叶	-7360
吉	-7361
同	-7362
吗	-7363
味	-7364
命	-7365
咨	-7366
品	-7367
唯	-7368
商	-7369
啥	-7370
啼	-7371
喷	-7372
图	-7373
圍	-7374
坡	-7375
場	-7376
堵	-7377
塩	-7378
墓	-7379
增	-7380
复	-7381
夜	-7382
妈	-7383
姻	-7384
威	-7385
存	-7386
守	-7387
宕	-7388
官	-7389
实	-7390
客	-7391
容	-7392
實	-7393
寧	-7394
将	-7395
少	-7396
就	-7397
尻	-7398
屋	-7399
屌	-7400
岡	-7401
岩	-7402
己	-7403
已	-7404
巾	-7405
希	-7406
師	-7407
常	-7408
干	-7409
庄	-7410
序	-7411
府	-7412
影	-7413
心	-7414
快	-7415
怎	-7416
总	-7417
恵	-7418
情	-7419
想	-7420
愛	-7421
慕	-7422
慧	-7423
手	-7424
承	-7425
把	-7426
抗	-7427
折	-7428
护	-7429
括	-7430
捏	-7431
据	-7432
搏	-7433
撃	-7434
撰	-7435
操	-7436
擲	-7437
改	-7438
攻	-7439
放	-7440
故	-7441
数	-7442
方	-7443
既	-7444
早	-7445
明	-7446
普	-7447
景	-7448
更	-7449
曹	-7450
最	-7451
朝	-7452
期	-7453
林	-7454
果	-7455
柜	-7456
柳	-7457
标	-7458
栗	-7459
株	-7460
样	-7461
桔	-7462
档	-7463
梨	-7464
楩	-7465
業	-7466
橘	-7467
機	-7468
止	-7469
母	-7470
氏	-7471
沖	-7472
沪	-7473
河	-7474
治	-7475
泛	-7476
波	-7477
洛	-7478
洪	-7479
洲	-7480
活	-7481
清	-7482
渡	-7483
溪	-7484
满	-7485
滬	-7486
演	-7487
澄	-7488
濟	-7489
瀾	-7490
烂	-7491
照	-7492
爱	-7493
爽	-7494
片	-7495
牛	-7496
牝	-7497
牡	-7498
物	-7499
特	-7500
犬	-7501
猛	-7502
猫	-7503
现	-7504
珊	-7505
班	-7506
瑚	-7507
甲	-7508
番	-7509
疆	-7510
登	-7511
益	-7512
県	-7513
督	-7514
码	-7515
社	-7516
祝	-7517
神	-7518
稱	-7519
窣	-7520
站	-7521
竹	-7522
粵	-7523
紅	-7524
純	-7525
紙	-7526
素	-7527
終	-7528
統	-7529
継	-7530
線	-7531
緣	-7532
縄	-7533
縣	-7534
織	-7535
绍	-7536
缎	-7537
网	-7538
置	-7539
羊	-7540
翁	-7541
翼	-7542
老	-7543
考	-7544
者	-7545
職	-7546
肥	-7547
胜	-7548
能	-7549
臧	-7550
臭	-7551
臺	-7552
臼	-7553
船	-7554
芜	-7555
芦	-7556
范	-7557
草	-7558
莱	-7559
葦	-7560
蒙	-7561
薩	-7562
薬	-7563
藏	-7564
藩	-7565
蘭	-7566
虞	-7567
虫	-7568
蝴	-7569
蝶	-7570
血	-7571
行	-7572
衛	-7573
製	-7574
視	-7575
言	-7576
訣	-7577
詠	-7578
認	-7579
調	-7580
講	-7581
记	-7582
论	-7583
话	-7584
谷	-7585
貪	-7586
貴	-7587
賜	-7588
负	-7589
起	-7590
越	-7591
路	-7592
輝	-7593
輸	-7594
辜	-7595
辺	-7596
过	-7597
近	-7598
追	-7599
退	-7600
送	-7601
逆	-7602
造	-7603
邈	-7604
酸	-7605
醫	-7606
銀	-7607
钮	-7608
钾	-7609
長	-7610
长	-7611
関	-7612
闘	-7613
防	-7614
阿	-7615
陈	-7616
院	-7617
陳	-7618
陸	-7619
険	-7620
陽	-7621
隻	-7622
電	-7623
静	-7624
非	-7625
面	-7626
韦	-7627
頁	-7628
題	-7629
願	-7630
顧	-7631
页	-7632
项	-7633
顺	-7634
颈	-7635
風	-7636
食	-7637
駅	-7638
驚	-7639
體	-7640
鮮	-7641
鹿	-7642
黃	-7643
黄	-7644
龜	-7645
龱	-7646
개	-7647
경	-7648
공	-7649
구	-7650
넘	-7651
뉴	-7652
는	-7653
다	-7654
대	-7655
독	-7656
때	-7657
려	-7658
룡	-7659
리	-7660
마	-7661
맛	-7662
문	-7663
민	-7664
받	-7665
보	-7666
비	-7667
빠	-7668
상	-7669
선	-7670
소	-7671
순	-7672
아	-7673
안	-7674
야	-7675
요	-7676
유	-7677
의	-7678
이	-7679
인	-7680
있	-7681
자	-7682
조	-7683
주	-7684
지	-7685
짐	-7686
집	-7687
찜	-7688
척	-7689
천	-7690
청	-7691
칠	-7692
침	-7693
틀	-7694
편	-7695
헌	-7696
혈	-7697
호	-7698
	-7699
	-7700
	-7701
	-7702
	-7703
	-7704
	-7705
𐌲	-7706
𐌴	-7707
𐌿	-7708
🌙	-7709
🌼	-7710
🌿	-7711
🍑	-7712
🎤	-7713
🏃	-7714
🏆	-7715
👊	-7716
👌	-7717
👍	-7718
👑	-7719
👓	-7720
💃	-7721
💕	-7722
💩	-7723
🔥	-7724
🖤	-7725
😃	-7726
😈	-7727
😋	-7728
😍	-7729
😏	-7730
😔	-7731
😢	-7732
😩	-7733
🙂	-7734
🙃	-7735
🙄	-7736
🙈	-7737
🙉	-7738
🙊	-7739
🚶	-7740
